{
  "version": "1.0",
  "truncation": null,
  "padding": null,
  "added_tokens": [
    {
      "id": 0,
      "content": "[PAD]",
      "single_word": false,
      "lstrip": false,
      "rstrip": false,
      "normalized": false,
      "special": true
    },
    {
      "id": 1,
      "content": "[UNK]",
      "single_word": false,
      "lstrip": false,
      "rstrip": false,
      "normalized": false,
      "special": true
    },
    {
      "id": 2,
      "content": "[CLS]",
      "single_word": false,
      "lstrip": false,
      "rstrip": false,
      "normalized": false,
      "special": true
    },
    {
      "id": 3,
      "content": "[SEP]",
      "single_word": false,
      "lstrip": false,
      "rstrip": false,
      "normalized": false,
      "special": true
    },
    {
      "id": 4,
      "content": "[MASK]",
      "single_word": false,
      "lstrip": false,
      "rstrip": false,
      "normalized": false,
      "special": true
    },
    {
      "id": 5,
      "content": "[BOS]",
      "single_word": false,
      "lstrip": false,
      "rstrip": false,
      "normalized": false,
      "special": true
    },
    {
      "id": 6,
      "content": "[EOS]",
      "single_word": false,
      "lstrip": false,
      "rstrip": false,
      "normalized": false,
      "special": true
    }
  ],
  "normalizer": null,
  "pre_tokenizer": {
    "type": "Whitespace"
  },
  "post_processor": {
    "type": "TemplateProcessing",
    "single": [
      {
        "SpecialToken": {
          "id": "[BOS]",
          "type_id": 0
        }
      },
      {
        "Sequence": {
          "id": "A",
          "type_id": 0
        }
      },
      {
        "SpecialToken": {
          "id": "[EOS]",
          "type_id": 0
        }
      }
    ],
    "pair": [
      {
        "SpecialToken": {
          "id": "[BOS]",
          "type_id": 0
        }
      },
      {
        "Sequence": {
          "id": "A",
          "type_id": 0
        }
      },
      {
        "SpecialToken": {
          "id": "[SEP]",
          "type_id": 0
        }
      },
      {
        "Sequence": {
          "id": "B",
          "type_id": 0
        }
      },
      {
        "SpecialToken": {
          "id": "[EOS]",
          "type_id": 0
        }
      }
    ],
    "special_tokens": {
      "[BOS]": {
        "id": "[BOS]",
        "ids": [
          5
        ],
        "tokens": [
          "[BOS]"
        ]
      },
      "[EOS]": {
        "id": "[EOS]",
        "ids": [
          6
        ],
        "tokens": [
          "[EOS]"
        ]
      },
      "[SEP]": {
        "id": "[SEP]",
        "ids": [
          3
        ],
        "tokens": [
          "[SEP]"
        ]
      }
    }
  },
  "decoder": null,
  "model": {
    "type": "BPE",
    "dropout": null,
    "unk_token": null,
    "continuing_subword_prefix": null,
    "end_of_word_suffix": null,
    "fuse_unk": false,
    "byte_fallback": false,
    "ignore_merges": false,
    "vocab": {
      "[PAD]": 0,
      "[UNK]": 1,
      "[CLS]": 2,
      "[SEP]": 3,
      "[MASK]": 4,
      "[BOS]": 5,
      "[EOS]": 6,
      "!": 7,
      "\"": 8,
      "#": 9,
      "$": 10,
      "%": 11,
      "&": 12,
      "'": 13,
      "(": 14,
      ")": 15,
      "*": 16,
      "+": 17,
      ",": 18,
      "-": 19,
      ".": 20,
      "/": 21,
      "0": 22,
      "1": 23,
      "2": 24,
      "3": 25,
      "4": 26,
      "5": 27,
      "6": 28,
      "7": 29,
      "8": 30,
      "9": 31,
      ":": 32,
      ";": 33,
      "<": 34,
      "=": 35,
      ">": 36,
      "?": 37,
      "@": 38,
      "B": 39,
      "E": 40,
      "O": 41,
      "S": 42,
      "[": 43,
      "\\": 44,
      "]": 45,
      "^": 46,
      "_": 47,
      "`": 48,
      "a": 49,
      "b": 50,
      "c": 51,
      "d": 52,
      "e": 53,
      "f": 54,
      "g": 55,
      "h": 56,
      "i": 57,
      "j": 58,
      "k": 59,
      "l": 60,
      "m": 61,
      "n": 62,
      "o": 63,
      "p": 64,
      "q": 65,
      "r": 66,
      "s": 67,
      "t": 68,
      "u": 69,
      "v": 70,
      "w": 71,
      "x": 72,
      "y": 73,
      "z": 74,
      "{": 75,
      "|": 76,
      "~": 77,
      "¥": 78,
      "«": 79,
      "®": 80,
      "¯": 81,
      "»": 82,
      "á": 83,
      "ä": 84,
      "å": 85,
      "æ": 86,
      "é": 87,
      "ë": 88,
      "ñ": 89,
      "ø": 90,
      "ă": 91,
      "ą": 92,
      "ē": 93,
      "ę": 94,
      "ī": 95,
      "ō": 96,
      "ʔ": 97,
      "ʕ": 98,
      "ʖ": 99,
      "ʘ": 100,
      "́": 101,
      "̂": 102,
      "̃": 103,
      "̆": 104,
      "̈": 105,
      "̉": 106,
      "̊": 107,
      "̋": 108,
      "̌": 109,
      "̐": 110,
      "̑": 111,
      "̒": 112,
      "̓": 113,
      "̕": 114,
      "̖": 115,
      "̗": 116,
      "̘": 117,
      "̙": 118,
      "̚": 119,
      "̛": 120,
      "̜": 121,
      "̝": 122,
      "̠": 123,
      "̡": 124,
      "̢": 125,
      "̣": 126,
      "̤": 127,
      "̥": 128,
      "̦": 129,
      "̨": 130,
      "̩": 131,
      "̫": 132,
      "̬": 133,
      "̭": 134,
      "̮": 135,
      "̯": 136,
      "̴": 137,
      "̵": 138,
      "̶": 139,
      "̷": 140,
      "̸": 141,
      "̹": 142,
      "̻": 143,
      "̼": 144,
      "̾": 145,
      "̀": 146,
      "́": 147,
      "̓": 148,
      "̈́": 149,
      "͆": 150,
      "͇": 151,
      "͈": 152,
      "͉": 153,
      "͊": 154,
      "͋": 155,
      "͍": 156,
      "͑": 157,
      "͓": 158,
      "͔": 159,
      "͖": 160,
      "͗": 161,
      "͘": 162,
      "͙": 163,
      "͚": 164,
      "͛": 165,
      "͠": 166,
      "α": 167,
      "β": 168,
      "γ": 169,
      "δ": 170,
      "ε": 171,
      "ζ": 172,
      "ι": 173,
      "κ": 174,
      "λ": 175,
      "σ": 176,
      "а": 177,
      "б": 178,
      "в": 179,
      "г": 180,
      "д": 181,
      "е": 182,
      "ж": 183,
      "з": 184,
      "и": 185,
      "й": 186,
      "к": 187,
      "л": 188,
      "м": 189,
      "н": 190,
      "о": 191,
      "п": 192,
      "р": 193,
      "с": 194,
      "т": 195,
      "у": 196,
      "х": 197,
      "ц": 198,
      "ч": 199,
      "ш": 200,
      "щ": 201,
      "ы": 202,
      "ь": 203,
      "ю": 204,
      "я": 205,
      "҈": 206,
      "҉": 207,
      "א": 208,
      "ב": 209,
      "ג": 210,
      "ה": 211,
      "ו": 212,
      "ז": 213,
      "ח": 214,
      "י": 215,
      "ך": 216,
      "כ": 217,
      "ל": 218,
      "ם": 219,
      "מ": 220,
      "ן": 221,
      "נ": 222,
      "ע": 223,
      "פ": 224,
      "צ": 225,
      "ק": 226,
      "ר": 227,
      "ש": 228,
      "ת": 229,
      "ඞ": 230,
      "ා": 231,
      "༼": 232,
      "༽": 233,
      "ህ": 234,
      "ሆ": 235,
      "ለ": 236,
      "ላ": 237,
      "ል": 238,
      "ሐ": 239,
      "መ": 240,
      "ማ": 241,
      "ም": 242,
      "ሥ": 243,
      "ረ": 244,
      "ር": 245,
      "ሰ": 246,
      "ስ": 247,
      "ሻ": 248,
      "ቀ": 249,
      "ቃ": 250,
      "ቅ": 251,
      "በ": 252,
      "ብ": 253,
      "ቦ": 254,
      "ቧ": 255,
      "ተ": 256,
      "ቱ": 257,
      "ታ": 258,
      "ት": 259,
      "ቶ": 260,
      "ቷ": 261,
      "ቻ": 262,
      "ች": 263,
      "ኃ": 264,
      "ነ": 265,
      "ና": 266,
      "ን": 267,
      "ኛ": 268,
      "አ": 269,
      "እ": 270,
      "ከ": 271,
      "ክ": 272,
      "ኮ": 273,
      "ወ": 274,
      "ው": 275,
      "ዜ": 276,
      "ዝ": 277,
      "የ": 278,
      "ያ": 279,
      "ይ": 280,
      "ዳ": 281,
      "ጢ": 282,
      "ጨ": 283,
      "ፍ": 284,
      "፣": 285,
      "ᒷ": 286,
      "ᓭ": 287,
      "ᓵ": 288,
      "ᔑ": 289,
      "​": 290,
      "‍": 291,
      "–": 292,
      "—": 293,
      "‘": 294,
      "’": 295,
      "“": 296,
      "”": 297,
      "„": 298,
      "•": 299,
      "…": 300,
      "‼": 301,
      "‽": 302,
      "‿": 303,
      "⁉": 304,
      "₽": 305,
      "⃣": 306,
      "™": 307,
      "ℸ": 308,
      "↔": 309,
      "↕": 310,
      "↸": 311,
      "∴": 312,
      "∷": 313,
      "⌨": 314,
      "⍑": 315,
      "⎓": 316,
      "⏭": 317,
      "⏰": 318,
      "⏱": 319,
      "⏲": 320,
      "ⓜ": 321,
      "━": 322,
      "│": 323,
      "┳": 324,
      "┷": 325,
      "╎": 326,
      "═": 327,
      "║": 328,
      "╔": 329,
      "╗": 330,
      "╚": 331,
      "╝": 332,
      "╤": 333,
      "╦": 334,
      "╾": 335,
      "▂": 336,
      "▃": 337,
      "▄": 338,
      "▅": 339,
      "▆": 340,
      "▇": 341,
      "█": 342,
      "▔": 343,
      "◕": 344,
      "☀": 345,
      "☁": 346,
      "☑": 347,
      "☕": 348,
      "☝": 349,
      "☞": 350,
      "☠": 351,
      "☦": 352,
      "☪": 353,
      "☮": 354,
      "☸": 355,
      "☹": 356,
      "☺": 357,
      "♀": 358,
      "♂": 359,
      "♌": 360,
      "♣": 361,
      "♥": 362,
      "♦": 363,
      "⚍": 364,
      "⚖": 365,
      "⚙": 366,
      "⚛": 367,
      "⚠": 368,
      "⚡": 369,
      "⚰": 370,
      "⚽": 371,
      "⚾": 372,
      "⛓": 373,
      "⛔": 374,
      "⛽": 375,
      "✅": 376,
      "✈": 377,
      "✊": 378,
      "✌": 379,
      "✍": 380,
      "✖": 381,
      "✝": 382,
      "✡": 383,
      "✨": 384,
      "❄": 385,
      "❌": 386,
      "❓": 387,
      "❤": 388,
      "➡": 389,
      "⠀": 390,
      "⠁": 391,
      "⠂": 392,
      "⠃": 393,
      "⠄": 394,
      "⠆": 395,
      "⠇": 396,
      "⠈": 397,
      "⠉": 398,
      "⠊": 399,
      "⠋": 400,
      "⠌": 401,
      "⠍": 402,
      "⠎": 403,
      "⠏": 404,
      "⠐": 405,
      "⠑": 406,
      "⠒": 407,
      "⠓": 408,
      "⠔": 409,
      "⠖": 410,
      "⠗": 411,
      "⠘": 412,
      "⠙": 413,
      "⠚": 414,
      "⠛": 415,
      "⠞": 416,
      "⠟": 417,
      "⠠": 418,
      "⠢": 419,
      "⠣": 420,
      "⠤": 421,
      "⠥": 422,
      "⠦": 423,
      "⠧": 424,
      "⠩": 425,
      "⠪": 426,
      "⠭": 427,
      "⠲": 428,
      "⠳": 429,
      "⠴": 430,
      "⠶": 431,
      "⠸": 432,
      "⠹": 433,
      "⠻": 434,
      "⠼": 435,
      "⠽": 436,
      "⠿": 437,
      "⡀": 438,
      "⡁": 439,
      "⡄": 440,
      "⡆": 441,
      "⡇": 442,
      "⡈": 443,
      "⡉": 444,
      "⡊": 445,
      "⡋": 446,
      "⡌": 447,
      "⡏": 448,
      "⡒": 449,
      "⡔": 450,
      "⡗": 451,
      "⡛": 452,
      "⡜": 453,
      "⡟": 454,
      "⡠": 455,
      "⡤": 456,
      "⡦": 457,
      "⡬": 458,
      "⡰": 459,
      "⡴": 460,
      "⡶": 461,
      "⡸": 462,
      "⡿": 463,
      "⢀": 464,
      "⢃": 465,
      "⢄": 466,
      "⢈": 467,
      "⢉": 468,
      "⢍": 469,
      "⢏": 470,
      "⢐": 471,
      "⢔": 472,
      "⢗": 473,
      "⢘": 474,
      "⢟": 475,
      "⢠": 476,
      "⢢": 477,
      "⢤": 478,
      "⢫": 479,
      "⢬": 480,
      "⢭": 481,
      "⢰": 482,
      "⢱": 483,
      "⢲": 484,
      "⢳": 485,
      "⢴": 486,
      "⢸": 487,
      "⢹": 488,
      "⢻": 489,
      "⢼": 490,
      "⢽": 491,
      "⢾": 492,
      "⢿": 493,
      "⣀": 494,
      "⣁": 495,
      "⣄": 496,
      "⣆": 497,
      "⣇": 498,
      "⣉": 499,
      "⣊": 500,
      "⣋": 501,
      "⣌": 502,
      "⣍": 503,
      "⣏": 504,
      "⣐": 505,
      "⣒": 506,
      "⣛": 507,
      "⣝": 508,
      "⣟": 509,
      "⣠": 510,
      "⣤": 511,
      "⣦": 512,
      "⣧": 513,
      "⣨": 514,
      "⣩": 515,
      "⣫": 516,
      "⣬": 517,
      "⣭": 518,
      "⣮": 519,
      "⣯": 520,
      "⣰": 521,
      "⣴": 522,
      "⣶": 523,
      "⣷": 524,
      "⣸": 525,
      "⣹": 526,
      "⣻": 527,
      "⣼": 528,
      "⣽": 529,
      "⣾": 530,
      "⣿": 531,
      "⬅": 532,
      "⬆": 533,
      "⬇": 534,
      "⬛": 535,
      "⭐": 536,
      "⭕": 537,
      "。": 538,
      "〽": 539,
      "え": 540,
      "お": 541,
      "が": 542,
      "こ": 543,
      "す": 544,
      "せ": 545,
      "つ": 546,
      "て": 547,
      "で": 548,
      "に": 549,
      "ね": 550,
      "の": 551,
      "ま": 552,
      "み": 553,
      "を": 554,
      "ツ": 555,
      "デ": 556,
      "リ": 557,
      "ヮ": 558,
      "上": 559,
      "不": 560,
      "么": 561,
      "了": 562,
      "什": 563,
      "到": 564,
      "力": 565,
      "変": 566,
      "太": 567,
      "容": 568,
      "已": 569,
      "懂": 570,
      "我": 571,
      "手": 572,
      "日": 573,
      "时": 574,
      "本": 575,
      "気": 576,
      "狂": 577,
      "的": 578,
      "笑": 579,
      "经": 580,
      "老": 581,
      "語": 582,
      "都": 583,
      "间": 584,
      "ﷺ": 585,
      "️": 586,
      "︻": 587,
      "！": 588,
      "，": 589,
      "？": 590,
      "ﾉ": 591,
      "ﾟ": 592,
      "𐎠": 593,
      "𐎡": 594,
      "𐎢": 595,
      "𐎣": 596,
      "𐎤": 597,
      "𐎦": 598,
      "𐎧": 599,
      "𐎪": 600,
      "𐎫": 601,
      "𐎬": 602,
      "𐎭": 603,
      "𐎮": 604,
      "𐎱": 605,
      "𐎵": 606,
      "𐎸": 607,
      "𐎼": 608,
      "𐏀": 609,
      "𐏂": 610,
      "𒀭": 611,
      "𒂗": 612,
      "𒆠": 613,
      "𝓪": 614,
      "𝓮": 615,
      "𝓯": 616,
      "𝓴": 617,
      "𝓻": 618,
      "𝔂": 619,
      "𝙹": 620,
      "🅰": 621,
      "🅱": 622,
      "🆖": 623,
      "🆘": 624,
      "🆙": 625,
      "🇦": 626,
      "🇨": 627,
      "🇩": 628,
      "🇪": 629,
      "🇬": 630,
      "🇮": 631,
      "🇰": 632,
      "🇲": 633,
      "🇳": 634,
      "🇸": 635,
      "🇹": 636,
      "🇺": 637,
      "🇽": 638,
      "🇿": 639,
      "🈸": 640,
      "🉐": 641,
      "🌃": 642,
      "🌄": 643,
      "🌈": 644,
      "🌎": 645,
      "🌘": 646,
      "🌚": 647,
      "🌜": 648,
      "🌝": 649,
      "🌞": 650,
      "🌟": 651,
      "🌠": 652,
      "🌫": 653,
      "🌭": 654,
      "🌮": 655,
      "🌱": 656,
      "🌵": 657,
      "🌶": 658,
      "🌹": 659,
      "🌻": 660,
      "🍃": 661,
      "🍅": 662,
      "🍆": 663,
      "🍊": 664,
      "🍋": 665,
      "🍍": 666,
      "🍎": 667,
      "🍏": 668,
      "🍑": 669,
      "🍒": 670,
      "🍓": 671,
      "🍔": 672,
      "🍕": 673,
      "🍛": 674,
      "🍜": 675,
      "🍟": 676,
      "🍣": 677,
      "🍥": 678,
      "🍦": 679,
      "🍧": 680,
      "🍨": 681,
      "🍲": 682,
      "🍳": 683,
      "🍷": 684,
      "🍸": 685,
      "🍺": 686,
      "🍻": 687,
      "🍼": 688,
      "🍾": 689,
      "🎃": 690,
      "🎄": 691,
      "🎅": 692,
      "🎉": 693,
      "🎛": 694,
      "🎞": 695,
      "🎣": 696,
      "🎮": 697,
      "🎯": 698,
      "🎵": 699,
      "🎶": 700,
      "🎺": 701,
      "🎼": 702,
      "🎿": 703,
      "🏀": 704,
      "🏃": 705,
      "🏅": 706,
      "🏇": 707,
      "🏈": 708,
      "🏉": 709,
      "🏐": 710,
      "🏔": 711,
      "🏘": 712,
      "🏛": 713,
      "🏠": 714,
      "🏡": 715,
      "🏢": 716,
      "🏥": 717,
      "🏧": 718,
      "🏫": 719,
      "🏭": 720,
      "🏳": 721,
      "🏻": 722,
      "🏼": 723,
      "🏽": 724,
      "🏾": 725,
      "🏿": 726,
      "🐄": 727,
      "🐈": 728,
      "🐊": 729,
      "🐋": 730,
      "🐐": 731,
      "🐒": 732,
      "🐔": 733,
      "🐘": 734,
      "🐛": 735,
      "🐜": 736,
      "🐝": 737,
      "🐥": 738,
      "🐫": 739,
      "🐭": 740,
      "🐱": 741,
      "🐴": 742,
      "🐵": 743,
      "🐶": 744,
      "🐷": 745,
      "🐸": 746,
      "🐺": 747,
      "🐾": 748,
      "👀": 749,
      "👁": 750,
      "👄": 751,
      "👅": 752,
      "👆": 753,
      "👇": 754,
      "👈": 755,
      "👉": 756,
      "👊": 757,
      "👋": 758,
      "👌": 759,
      "👍": 760,
      "👎": 761,
      "👏": 762,
      "👐": 763,
      "👑": 764,
      "👟": 765,
      "👠": 766,
      "👢": 767,
      "👨": 768,
      "👩": 769,
      "👯": 770,
      "👰": 771,
      "👱": 772,
      "👴": 773,
      "👶": 774,
      "👷": 775,
      "👹": 776,
      "👺": 777,
      "👻": 778,
      "👽": 779,
      "👾": 780,
      "👿": 781,
      "💀": 782,
      "💁": 783,
      "💅": 784,
      "💇": 785,
      "💉": 786,
      "💊": 787,
      "💋": 788,
      "💓": 789,
      "💔": 790,
      "💘": 791,
      "💙": 792,
      "💚": 793,
      "💛": 794,
      "💜": 795,
      "💠": 796,
      "💢": 797,
      "💣": 798,
      "💤": 799,
      "💥": 800,
      "💦": 801,
      "💧": 802,
      "💨": 803,
      "💩": 804,
      "💪": 805,
      "💫": 806,
      "💬": 807,
      "💭": 808,
      "💯": 809,
      "💰": 810,
      "💲": 811,
      "💵": 812,
      "💸": 813,
      "💻": 814,
      "💼": 815,
      "📃": 816,
      "📄": 817,
      "📅": 818,
      "📈": 819,
      "📊": 820,
      "📐": 821,
      "📕": 822,
      "📜": 823,
      "📝": 824,
      "📠": 825,
      "📥": 826,
      "📩": 827,
      "📫": 828,
      "📲": 829,
      "📳": 830,
      "📴": 831,
      "📸": 832,
      "📻": 833,
      "🔂": 834,
      "🔄": 835,
      "🔊": 836,
      "🔌": 837,
      "🔍": 838,
      "🔔": 839,
      "🔘": 840,
      "🔛": 841,
      "🔝": 842,
      "🔞": 843,
      "🔟": 844,
      "🔥": 845,
      "🔧": 846,
      "🔪": 847,
      "🔫": 848,
      "🔺": 849,
      "🔼": 850,
      "🕊": 851,
      "🕋": 852,
      "🕐": 853,
      "🕒": 854,
      "🕝": 855,
      "🕥": 856,
      "🕦": 857,
      "🕰": 858,
      "🕳": 859,
      "🕴": 860,
      "🕵": 861,
      "🕶": 862,
      "🕺": 863,
      "🖊": 864,
      "🖋": 865,
      "🖕": 866,
      "🖤": 867,
      "🖥": 868,
      "🗂": 869,
      "🗄": 870,
      "🗑": 871,
      "🗓": 872,
      "🗝": 873,
      "🗡": 874,
      "🗣": 875,
      "🗨": 876,
      "🗯": 877,
      "🗳": 878,
      "🗼": 879,
      "🗽": 880,
      "🗿": 881,
      "😀": 882,
      "😁": 883,
      "😂": 884,
      "😃": 885,
      "😄": 886,
      "😅": 887,
      "😆": 888,
      "😇": 889,
      "😈": 890,
      "😉": 891,
      "😊": 892,
      "😋": 893,
      "😌": 894,
      "😍": 895,
      "😎": 896,
      "😏": 897,
      "😐": 898,
      "😑": 899,
      "😒": 900,
      "😓": 901,
      "😔": 902,
      "😕": 903,
      "😖": 904,
      "😗": 905,
      "😘": 906,
      "😙": 907,
      "😚": 908,
      "😛": 909,
      "😜": 910,
      "😝": 911,
      "😞": 912,
      "😟": 913,
      "😠": 914,
      "😡": 915,
      "😢": 916,
      "😣": 917,
      "😤": 918,
      "😥": 919,
      "😦": 920,
      "😧": 921,
      "😨": 922,
      "😩": 923,
      "😪": 924,
      "😫": 925,
      "😬": 926,
      "😭": 927,
      "😮": 928,
      "😯": 929,
      "😰": 930,
      "😱": 931,
      "😲": 932,
      "😳": 933,
      "😴": 934,
      "😵": 935,
      "😶": 936,
      "😷": 937,
      "😸": 938,
      "😹": 939,
      "😺": 940,
      "😻": 941,
      "😼": 942,
      "😽": 943,
      "😾": 944,
      "😿": 945,
      "🙀": 946,
      "🙁": 947,
      "🙂": 948,
      "🙃": 949,
      "🙄": 950,
      "🙅": 951,
      "🙆": 952,
      "🙈": 953,
      "🙉": 954,
      "🙊": 955,
      "🙋": 956,
      "🙌": 957,
      "🙍": 958,
      "🙎": 959,
      "🙏": 960,
      "🚕": 961,
      "🚗": 962,
      "🚣": 963,
      "🚧": 964,
      "🚨": 965,
      "🚩": 966,
      "🚪": 967,
      "🚫": 968,
      "🚬": 969,
      "🚰": 970,
      "🚷": 971,
      "🚹": 972,
      "🚻": 973,
      "🚽": 974,
      "🚿": 975,
      "🛀": 976,
      "🛂": 977,
      "🛄": 978,
      "🛅": 979,
      "🛌": 980,
      "🛏": 981,
      "🛞": 982,
      "🛢": 983,
      "🟤": 984,
      "🟥": 985,
      "🟧": 986,
      "🤌": 987,
      "🤍": 988,
      "🤎": 989,
      "🤐": 990,
      "🤑": 991,
      "🤒": 992,
      "🤓": 993,
      "🤔": 994,
      "🤕": 995,
      "🤖": 996,
      "🤗": 997,
      "🤘": 998,
      "🤙": 999,
      "🤚": 1000,
      "🤛": 1001,
      "🤜": 1002,
      "🤝": 1003,
      "🤞": 1004,
      "🤟": 1005,
      "🤠": 1006,
      "🤡": 1007,
      "🤢": 1008,
      "🤣": 1009,
      "🤤": 1010,
      "🤥": 1011,
      "🤦": 1012,
      "🤧": 1013,
      "🤨": 1014,
      "🤩": 1015,
      "🤪": 1016,
      "🤫": 1017,
      "🤬": 1018,
      "🤭": 1019,
      "🤮": 1020,
      "🤯": 1021,
      "🤳": 1022,
      "🤴": 1023,
      "🤵": 1024,
      "🤷": 1025,
      "🤺": 1026,
      "🥀": 1027,
      "🥁": 1028,
      "🥇": 1029,
      "🥈": 1030,
      "🥋": 1031,
      "🥎": 1032,
      "🥒": 1033,
      "🥓": 1034,
      "🥖": 1035,
      "🥗": 1036,
      "🥙": 1037,
      "🥛": 1038,
      "🥜": 1039,
      "🥟": 1040,
      "🥤": 1041,
      "🥫": 1042,
      "🥭": 1043,
      "🥰": 1044,
      "🥱": 1045,
      "🥲": 1046,
      "🥳": 1047,
      "🥴": 1048,
      "🥵": 1049,
      "🥶": 1050,
      "🥷": 1051,
      "🥸": 1052,
      "🥹": 1053,
      "🥺": 1054,
      "🦀": 1055,
      "🦃": 1056,
      "🦅": 1057,
      "🦋": 1058,
      "🦍": 1059,
      "🦑": 1060,
      "🦒": 1061,
      "🦚": 1062,
      "🦟": 1063,
      "🦠": 1064,
      "🦧": 1065,
      "🦨": 1066,
      "🦪": 1067,
      "🦲": 1068,
      "🦵": 1069,
      "🦶": 1070,
      "🦼": 1071,
      "🦽": 1072,
      "🧃": 1073,
      "🧅": 1074,
      "🧊": 1075,
      "🧌": 1076,
      "🧍": 1077,
      "🧎": 1078,
      "🧏": 1079,
      "🧐": 1080,
      "🧖": 1081,
      "🧘": 1082,
      "🧠": 1083,
      "🧡": 1084,
      "🧢": 1085,
      "🧬": 1086,
      "🧻": 1087,
      "🩵": 1088,
      "🩶": 1089,
      "🩷": 1090,
      "🪇": 1091,
      "🪐": 1092,
      "🪑": 1093,
      "🪠": 1094,
      "🪦": 1095,
      "🪨": 1096,
      "🪯": 1097,
      "🪱": 1098,
      "🪸": 1099,
      "🪼": 1100,
      "🪽": 1101,
      "🫃": 1102,
      "🫏": 1103,
      "🫓": 1104,
      "🫘": 1105,
      "🫠": 1106,
      "🫡": 1107,
      "🫢": 1108,
      "🫣": 1109,
      "🫤": 1110,
      "🫥": 1111,
      "🫦": 1112,
      "🫨": 1113,
      "🫰": 1114,
      "🫱": 1115,
      "🫵": 1116,
      "🫶": 1117,
      "🫷": 1118,
      "🫸": 1119,
      "OS": 1120,
      "th": 1121,
      "in": 1122,
      "BOS": 1123,
      "EOS": 1124,
      "an": 1125,
      "er": 1126,
      "at": 1127,
      "the": 1128,
      "on": 1129,
      "ou": 1130,
      "re": 1131,
      "is": 1132,
      "ing": 1133,
      "me": 1134,
      "it": 1135,
      "to": 1136,
      "al": 1137,
      "en": 1138,
      "st": 1139,
      "or": 1140,
      "le": 1141,
      "and": 1142,
      "id": 1143,
      "as": 1144,
      "you": 1145,
      "ed": 1146,
      "no": 1147,
      "ar": 1148,
      "wh": 1149,
      "be": 1150,
      "of": 1151,
      "ly": 1152,
      "se": 1153,
      "ch": 1154,
      "ro": 1155,
      "ke": 1156,
      "ma": 1157,
      "ve": 1158,
      "aa": 1159,
      "so": 1160,
      "ha": 1161,
      "ri": 1162,
      "li": 1163,
      "that": 1164,
      "es": 1165,
      "this": 1166,
      "ay": 1167,
      "ll": 1168,
      "he": 1169,
      "ad": 1170,
      "go": 1171,
      "ck": 1172,
      "ti": 1173,
      "⠀⠀": 1174,
      "ki": 1175,
      "un": 1176,
      "my": 1177,
      "wi": 1178,
      "ut": 1179,
      "for": 1180,
      "ig": 1181,
      "co": 1182,
      "ld": 1183,
      "ge": 1184,
      "lo": 1185,
      "am": 1186,
      "ski": 1187,
      "hi": 1188,
      "us": 1189,
      "skib": 1190,
      "mo": 1191,
      "ver": 1192,
      "ce": 1193,
      "idi": 1194,
      "are": 1195,
      "do": 1196,
      "skibidi": 1197,
      "sh": 1198,
      "zz": 1199,
      "ab": 1200,
      "pe": 1201,
      "ere": 1202,
      "one": 1203,
      "like": 1204,
      "de": 1205,
      "out": 1206,
      "we": 1207,
      "ust": 1208,
      "po": 1209,
      "ne": 1210,
      "⣿⣿": 1211,
      "ra": 1212,
      "with": 1213,
      "aaaa": 1214,
      "but": 1215,
      "was": 1216,
      "ir": 1217,
      "rizz": 1218,
      "gy": 1219,
      "ic": 1220,
      "just": 1221,
      "all": 1222,
      "..": 1223,
      "what": 1224,
      "ion": 1225,
      "let": 1226,
      "ter": 1227,
      "now": 1228,
      "ac": 1229,
      "not": 1230,
      "ally": 1231,
      "up": 1232,
      "bo": 1233,
      "um": 1234,
      "gyat": 1235,
      "some": 1236,
      "have": 1237,
      "gh": 1238,
      "ye": 1239,
      "your": 1240,
      "fu": 1241,
      "nt": 1242,
      "if": 1243,
      "they": 1244,
      "ho": 1245,
      "ohi": 1246,
      "gen": 1247,
      "ohio": 1248,
      "sig": 1249,
      "tu": 1250,
      "ta": 1251,
      "wor": 1252,
      "op": 1253,
      "thing": 1254,
      "can": 1255,
      "au": 1256,
      "fe": 1257,
      "su": 1258,
      "get": 1259,
      "don": 1260,
      "kid": 1261,
      "ilet": 1262,
      "toilet": 1263,
      "sigma": 1264,
      "ers": 1265,
      "con": 1266,
      "00": 1267,
      "te": 1268,
      "gyatt": 1269,
      "ate": 1270,
      "rom": 1271,
      "ame": 1272,
      "ould": 1273,
      "⠀⠀⠀⠀": 1274,
      "**": 1275,
      "from": 1276,
      "oo": 1277,
      "ds": 1278,
      "ent": 1279,
      "im": 1280,
      "know": 1281,
      "ation": 1282,
      "any": 1283,
      "ther": 1284,
      "com": 1285,
      "say": 1286,
      "ex": 1287,
      "ever": 1288,
      "ang": 1289,
      "!!": 1290,
      "fuck": 1291,
      "ven": 1292,
      "la": 1293,
      "ok": 1294,
      "ink": 1295,
      "ss": 1296,
      "ry": 1297,
      "ul": 1298,
      "gr": 1299,
      "way": 1300,
      "aaaaaaaa": 1301,
      "when": 1302,
      "shit": 1303,
      "meme": 1304,
      "ong": 1305,
      "ment": 1306,
      "ba": 1307,
      "ind": 1308,
      "pp": 1309,
      "about": 1310,
      "ght": 1311,
      "tion": 1312,
      "kids": 1313,
      "mean": 1314,
      "who": 1315,
      "ass": 1316,
      "der": 1317,
      "his": 1318,
      "ide": 1319,
      "him": 1320,
      "ur": 1321,
      "art": 1322,
      "old": 1323,
      "time": 1324,
      "om": 1325,
      "did": 1326,
      "il": 1327,
      "od": 1328,
      "ant": 1329,
      "think": 1330,
      "ople": 1331,
      "has": 1332,
      "people": 1333,
      "01": 1334,
      "day": 1335,
      "di": 1336,
      "rain": 1337,
      "even": 1338,
      "💀💀": 1339,
      "will": 1340,
      "qu": 1341,
      "ill": 1342,
      "got": 1343,
      "more": 1344,
      "ag": 1345,
      "than": 1346,
      "alp": 1347,
      "sl": 1348,
      "red": 1349,
      "cau": 1350,
      "el": 1351,
      "⣿⣿⣿⣿": 1352,
      "by": 1353,
      "king": 1354,
      "oun": 1355,
      "ah": 1356,
      "bro": 1357,
      "make": 1358,
      "how": 1359,
      "alpha": 1360,
      "ct": 1361,
      "pro": 1362,
      "ous": 1363,
      "pl": 1364,
      "year": 1365,
      "where": 1366,
      "ru": 1367,
      "sa": 1368,
      "post": 1369,
      "brain": 1370,
      "...": 1371,
      "every": 1372,
      "there": 1373,
      "per": 1374,
      "ol": 1375,
      "see": 1376,
      "fun": 1377,
      "cause": 1378,
      "gu": 1379,
      "man": 1380,
      "jo": 1381,
      "ring": 1382,
      "ty": 1383,
      "ine": 1384,
      "read": 1385,
      "ase": 1386,
      "ow": 1387,
      "ard": 1388,
      "sp": 1389,
      "ting": 1390,
      "ast": 1391,
      "ny": 1392,
      "ple": 1393,
      "end": 1394,
      "them": 1395,
      "ive": 1396,
      "igh": 1397,
      "then": 1398,
      "pre": 1399,
      "lit": 1400,
      "its": 1401,
      "only": 1402,
      "head": 1403,
      "ler": 1404,
      "ep": 1405,
      "spe": 1406,
      "fan": 1407,
      "whi": 1408,
      "na": 1409,
      "ci": 1410,
      "ity": 1411,
      "atch": 1412,
      "because": 1413,
      "their": 1414,
      "ite": 1415,
      "slang": 1416,
      "ts": 1417,
      "come": 1418,
      "bab": 1419,
      "does": 1420,
      "ten": 1421,
      "ber": 1422,
      "these": 1423,
      "mal": 1424,
      "back": 1425,
      "dy": 1426,
      "good": 1427,
      "real": 1428,
      "ough": 1429,
      "our": 1430,
      "why": 1431,
      "would": 1432,
      "vi": 1433,
      "rot": 1434,
      "yes": 1435,
      "under": 1436,
      "actu": 1437,
      "ble": 1438,
      "other": 1439,
      "chi": 1440,
      "new": 1441,
      "fa": 1442,
      "🚽🚽": 1443,
      "ound": 1444,
      "gener": 1445,
      "ser": 1446,
      "fer": 1447,
      "sc": 1448,
      "dis": 1449,
      "watch": 1450,
      "ap": 1451,
      "ain": 1452,
      "look": 1453,
      "tax": 1454,
      "ak": 1455,
      "cring": 1456,
      "ph": 1457,
      "too": 1458,
      "stand": 1459,
      "??": 1460,
      "rizzler": 1461,
      "bet": 1462,
      "sel": 1463,
      "used": 1464,
      "fucking": 1465,
      "age": 1466,
      "fo": 1467,
      "sha": 1468,
      "tal": 1469,
      "wn": 1470,
      "ess": 1471,
      "most": 1472,
      "ban": 1473,
      "words": 1474,
      "ence": 1475,
      "lu": 1476,
      "ish": 1477,
      "af": 1478,
      "someone": 1479,
      "ated": 1480,
      "here": 1481,
      "off": 1482,
      "fanum": 1483,
      "cringe": 1484,
      "self": 1485,
      "sus": 1486,
      "something": 1487,
      "bu": 1488,
      "du": 1489,
      "sto": 1490,
      "really": 1491,
      "understand": 1492,
      "11": 1493,
      "into": 1494,
      "made": 1495,
      "funny": 1496,
      "inter": 1497,
      "still": 1498,
      "pi": 1499,
      "led": 1500,
      "guy": 1501,
      "were": 1502,
      "memes": 1503,
      "over": 1504,
      "lol": 1505,
      "also": 1506,
      "generation": 1507,
      "mu": 1508,
      "dam": 1509,
      "right": 1510,
      "actually": 1511,
      "had": 1512,
      "said": 1513,
      "start": 1514,
      "been": 1515,
      "child": 1516,
      "she": 1517,
      "feel": 1518,
      "tho": 1519,
      "please": 1520,
      "ies": 1521,
      "god": 1522,
      "play": 1523,
      "est": 1524,
      "hum": 1525,
      "use": 1526,
      "want": 1527,
      "hh": 1528,
      "**:": 1529,
      "being": 1530,
      "vide": 1531,
      "years": 1532,
      "much": 1533,
      "same": 1534,
      "char": 1535,
      "never": 1536,
      "ni": 1537,
      "video": 1538,
      "sen": 1539,
      "ach": 1540,
      "should": 1541,
      "ically": 1542,
      "net": 1543,
      "aaaaaaaaaaaaaaaa": 1544,
      "ight": 1545,
      "male": 1546,
      "fr": 1547,
      "oh": 1548,
      "love": 1549,
      "ren": 1550,
      "fri": 1551,
      "ms": 1552,
      "🍑🍑": 1553,
      "cont": 1554,
      "int": 1555,
      "mon": 1556,
      "sch": 1557,
      "10": 1558,
      "need": 1559,
      "dit": 1560,
      "ving": 1561,
      "ai": 1562,
      "fir": 1563,
      "ng": 1564,
      "comment": 1565,
      "tr": 1566,
      "take": 1567,
      "brainrot": 1568,
      "while": 1569,
      "going": 1570,
      "fore": 1571,
      "could": 1572,
      "gri": 1573,
      "internet": 1574,
      "fin": 1575,
      "wer": 1576,
      "sub": 1577,
      "act": 1578,
      "bad": 1579,
      "ular": 1580,
      "stu": 1581,
      "saying": 1582,
      "damn": 1583,
      "vel": 1584,
      "down": 1585,
      "cre": 1586,
      "ist": 1587,
      "means": 1588,
      "xt": 1589,
      "cl": 1590,
      "tle": 1591,
      "try": 1592,
      "able": 1593,
      "word": 1594,
      "pr": 1595,
      "sing": 1596,
      "⠀⠀⠀⠀⠀⠀⠀⠀": 1597,
      "ree": 1598,
      "life": 1599,
      "men": 1600,
      "arent": 1601,
      "ool": 1602,
      "her": 1603,
      "100": 1604,
      "wa": 1605,
      "after": 1606,
      "young": 1607,
      "mace": 1608,
      "those": 1609,
      "sy": 1610,
      "ought": 1611,
      "ious": 1612,
      "ure": 1613,
      "may": 1614,
      "shake": 1615,
      "mat": 1616,
      "wo": 1617,
      "joke": 1618,
      "onk": 1619,
      "level": 1620,
      "tic": 1621,
      "ird": 1622,
      "ful": 1623,
      "didn": 1624,
      "reddit": 1625,
      "school": 1626,
      "ice": 1627,
      "less": 1628,
      "baby": 1629,
      "grimace": 1630,
      "cor": 1631,
      "pop": 1632,
      "first": 1633,
      "iz": 1634,
      "pers": 1635,
      "😔😔": 1636,
      "happ": 1637,
      "boy": 1638,
      "big": 1639,
      "ff": 1640,
      "very": 1641,
      "sure": 1642,
      "game": 1643,
      "ks": 1644,
      "youtu": 1645,
      "show": 1646,
      "tell": 1647,
      "cen": 1648,
      "da": 1649,
      "mis": 1650,
      "pla": 1651,
      "ans": 1652,
      "yeah": 1653,
      "gre": 1654,
      "hate": 1655,
      "sin": 1656,
      "ved": 1657,
      "refer": 1658,
      "before": 1659,
      "amer": 1660,
      "tur": 1661,
      "ati": 1662,
      "haha": 1663,
      "😂😂": 1664,
      "well": 1665,
      "cra": 1666,
      "har": 1667,
      "🔥🔥": 1668,
      "app": 1669,
      "des": 1670,
      "et": 1671,
      "min": 1672,
      "ways": 1673,
      "kind": 1674,
      "wr": 1675,
      "ging": 1676,
      "thought": 1677,
      "better": 1678,
      "gon": 1679,
      "!!!!": 1680,
      "sense": 1681,
      "ort": 1682,
      "soci": 1683,
      "person": 1684,
      "vo": 1685,
      "liter": 1686,
      "tru": 1687,
      "mem": 1688,
      "bas": 1689,
      "ee": 1690,
      "fi": 1691,
      "med": 1692,
      "cer": 1693,
      "lot": 1694,
      "💀💀💀💀": 1695,
      "gl": 1696,
      "sm": 1697,
      "dum": 1698,
      "ating": 1699,
      "hell": 1700,
      "doesn": 1701,
      "name": 1702,
      "ture": 1703,
      "🚽🚽🚽🚽": 1704,
      "gronk": 1705,
      "probab": 1706,
      "which": 1707,
      "ick": 1708,
      "ready": 1709,
      "probably": 1710,
      "ave": 1711,
      "wing": 1712,
      "things": 1713,
      "&#": 1714,
      "tra": 1715,
      "again": 1716,
      "song": 1717,
      "ance": 1718,
      "room": 1719,
      "irl": 1720,
      "sup": 1721,
      "comp": 1722,
      "parent": 1723,
      "enc": 1724,
      "20": 1725,
      "ked": 1726,
      "⠀⠀⠀": 1727,
      "action": 1728,
      "makes": 1729,
      "stup": 1730,
      "call": 1731,
      "pt": 1732,
      "augh": 1733,
      "estion": 1734,
      "cal": 1735,
      "pret": 1736,
      "little": 1737,
      "happen": 1738,
      "em": 1739,
      "give": 1740,
      "war": 1741,
      "yo": 1742,
      "always": 1743,
      "series": 1744,
      "stupid": 1745,
      "ns": 1746,
      "using": 1747,
      "ical": 1748,
      "literally": 1749,
      "cul": 1750,
      "ary": 1751,
      "boom": 1752,
      "youtube": 1753,
      "gonna": 1754,
      "gi": 1755,
      "ned": 1756,
      "sho": 1757,
      "bot": 1758,
      "eye": 1759,
      "girl": 1760,
      "stop": 1761,
      "blo": 1762,
      "blu": 1763,
      "kai": 1764,
      "uh": 1765,
      "yy": 1766,
      "keep": 1767,
      "ev": 1768,
      "ft": 1769,
      "long": 1770,
      "og": 1771,
      "question": 1772,
      "member": 1773,
      "fam": 1774,
      "lg": 1775,
      "kill": 1776,
      "stuff": 1777,
      "hard": 1778,
      "ange": 1779,
      "already": 1780,
      "lear": 1781,
      "fort": 1782,
      "weird": 1783,
      "dont": 1784,
      "hit": 1785,
      "came": 1786,
      "among": 1787,
      "popular": 1788,
      "🤣🤣": 1789,
      "isn": 1790,
      "work": 1791,
      "ps": 1792,
      "point": 1793,
      "sur": 1794,
      "getting": 1795,
      "cap": 1796,
      "put": 1797,
      "bi": 1798,
      "bre": 1799,
      "mlg": 1800,
      "enough": 1801,
      "row": 1802,
      "tf": 1803,
      "edging": 1804,
      "making": 1805,
      "dad": 1806,
      "gg": 1807,
      "sk": 1808,
      "ves": 1809,
      "lie": 1810,
      "moment": 1811,
      "idea": 1812,
      "den": 1813,
      "part": 1814,
      "though": 1815,
      "remember": 1816,
      "cenat": 1817,
      "auto": 1818,
      "laugh": 1819,
      "mus": 1820,
      "mind": 1821,
      "sim": 1822,
      "tok": 1823,
      "often": 1824,
      "goon": 1825,
      "32": 1826,
      "ear": 1827,
      "non": 1828,
      "ise": 1829,
      "best": 1830,
      "set": 1831,
      "dop": 1832,
      "acc": 1833,
      "grid": 1834,
      "mar": 1835,
      "ste": 1836,
      "stre": 1837,
      "tik": 1838,
      "dude": 1839,
      "humor": 1840,
      "201": 1841,
      "fl": 1842,
      "nor": 1843,
      "par": 1844,
      "ins": 1845,
      "cool": 1846,
      "days": 1847,
      "friend": 1848,
      "pretty": 1849,
      ".\"": 1850,
      "find": 1851,
      "tri": 1852,
      "seen": 1853,
      "til": 1854,
      "maybe": 1855,
      "ago": 1856,
      "ball": 1857,
      "foo": 1858,
      "ug": 1859,
      "low": 1860,
      "last": 1861,
      "whole": 1862,
      "ning": 1863,
      "🗿🗿": 1864,
      "orig": 1865,
      "around": 1866,
      "cu": 1867,
      "hone": 1868,
      "ima": 1869,
      "pa": 1870,
      "rand": 1871,
      "next": 1872,
      "ash": 1873,
      "che": 1874,
      "⣿⣿⣿⣿⣿⣿⣿⣿": 1875,
      "ounds": 1876,
      "content": 1877,
      "class": 1878,
      "aw": 1879,
      "dif": 1880,
      "ob": 1881,
      "si": 1882,
      "ank": 1883,
      "live": 1884,
      "doing": 1885,
      "origin": 1886,
      "sed": 1887,
      "sounds": 1888,
      "vy": 1889,
      "oooo": 1890,
      "started": 1891,
      "lang": 1892,
      "sion": 1893,
      "ckle": 1894,
      "world": 1895,
      "trying": 1896,
      "dumb": 1897,
      "bit": 1898,
      "dun": 1899,
      "sent": 1900,
      "ted": 1901,
      "col": 1902,
      "defin": 1903,
      "hope": 1904,
      "honest": 1905,
      "mi": 1906,
      "stick": 1907,
      "max": 1908,
      "hear": 1909,
      "zza": 1910,
      "times": 1911,
      "everyone": 1912,
      "children": 1913,
      "langu": 1914,
      "ding": 1915,
      "ily": 1916,
      "ither": 1917,
      "past": 1918,
      "today": 1919,
      "als": 1920,
      "heard": 1921,
      "pizza": 1922,
      "social": 1923,
      "py": 1924,
      "son": 1925,
      "sound": 1926,
      "ount": 1927,
      "ends": 1928,
      "become": 1929,
      "thank": 1930,
      "talk": 1931,
      "car": 1932,
      "gig": 1933,
      "orn": 1934,
      "bop": 1935,
      "wan": 1936,
      "die": 1937,
      "videos": 1938,
      "bl": 1939,
      "ction": 1940,
      "hal": 1941,
      "blud": 1942,
      "200": 1943,
      "lma": 1944,
      "ason": 1945,
      "0100": 1946,
      "since": 1947,
      "tiktok": 1948,
      "?!": 1949,
      "cr": 1950,
      "ken": 1951,
      "top": 1952,
      "enti": 1953,
      "until": 1954,
      "acter": 1955,
      "wait": 1956,
      "language": 1957,
      "dro": 1958,
      "lt": 1959,
      "line": 1960,
      "sor": 1961,
      "serious": 1962,
      "true": 1963,
      "cri": 1964,
      "myself": 1965,
      "such": 1966,
      "says": 1967,
      "scre": 1968,
      "ath": 1969,
      "high": 1970,
      "rough": 1971,
      "ones": 1972,
      "tower": 1973,
      "cks": 1974,
      "anything": 1975,
      "talking": 1976,
      "griddy": 1977,
      "must": 1978,
      "ator": 1979,
      "least": 1980,
      "nothing": 1981,
      "chat": 1982,
      "dead": 1983,
      "iron": 1984,
      "toilets": 1985,
      "speak": 1986,
      "watching": 1987,
      "character": 1988,
      "wrong": 1989,
      "bus": 1990,
      "tit": 1991,
      "won": 1992,
      "zy": 1993,
      "😱😱": 1994,
      "unch": 1995,
      "culture": 1996,
      "either": 1997,
      "lar": 1998,
      "tw": 1999,
      "ref": 2000,
      "medi": 2001,
      "sex": 2002,
      "comm": 2003,
      "meaning": 2004,
      "cted": 2005,
      "guess": 2006,
      "own": 2007,
      "lmao": 2008,
      "sit": 2009,
      "cky": 2010,
      "tive": 2011,
      "dec": 2012,
      "text": 2013,
      "coming": 2014,
      "parents": 2015,
      "random": 2016,
      "differ": 2017,
      "br": 2018,
      "je": 2019,
      "ster": 2020,
      "ider": 2021,
      "body": 2022,
      "teen": 2023,
      "plain": 2024,
      "care": 2025,
      "emo": 2026,
      "another": 2027,
      "era": 2028,
      "light": 2029,
      "few": 2030,
      "ahh": 2031,
      "friends": 2032,
      "great": 2033,
      "ely": 2034,
      "many": 2035,
      "pri": 2036,
      "les": 2037,
      "ses": 2038,
      "bru": 2039,
      "mill": 2040,
      "wol": 2041,
      "wtf": 2042,
      "ask": 2043,
      "charis": 2044,
      "bat": 2045,
      "shi": 2046,
      "wal": 2047,
      "😭😭": 2048,
      "engl": 2049,
      "leave": 2050,
      "peri": 2051,
      "called": 2052,
      "!\"": 2053,
      "nah": 2054,
      "sati": 2055,
      "two": 2056,
      "through": 2057,
      "mewing": 2058,
      "whop": 2059,
      "face": 2060,
      "phone": 2061,
      "sorry": 2062,
      "19": 2063,
      "ner": 2064,
      "os": 2065,
      "reason": 2066,
      "tor": 2067,
      "uncan": 2068,
      "mom": 2069,
      "....": 2070,
      "concer": 2071,
      "human": 2072,
      "🍑🍑🍑🍑": 2073,
      "reference": 2074,
      "honestly": 2075,
      "13": 2076,
      "ga": 2077,
      "mr": 2078,
      "mid": 2079,
      "tren": 2080,
      "xing": 2081,
      "rect": 2082,
      "roll": 2083,
      "cept": 2084,
      "lack": 2085,
      "wanna": 2086,
      "15": 2087,
      "away": 2088,
      "clu": 2089,
      "dr": 2090,
      "far": 2091,
      "mil": 2092,
      "ater": 2093,
      "rel": 2094,
      "edge": 2095,
      "beta": 2096,
      "ross": 2097,
      "aren": 2098,
      "teach": 2099,
      "!!!": 2100,
      "thanks": 2101,
      "perfor": 2102,
      "comments": 2103,
      "questions": 2104,
      "automat": 2105,
      "english": 2106,
      "bing": 2107,
      "camer": 2108,
      "ef": 2109,
      "hel": 2110,
      "ade": 2111,
      "aaaaa": 2112,
      "worse": 2113,
      "reading": 2114,
      "press": 2115,
      "vie": 2116,
      "looks": 2117,
      "phr": 2118,
      "banban": 2119,
      "aaaaaaaaaaaaaaaaaaaaaaaaaaaaaaaa": 2120,
      "😔😔😔😔": 2121,
      "uncanny": 2122,
      "12": 2123,
      "might": 2124,
      "pu": 2125,
      "goof": 2126,
      "aming": 2127,
      "tain": 2128,
      "cons": 2129,
      "anyone": 2130,
      "charisma": 2131,
      "whopper": 2132,
      "cur": 2133,
      "ger": 2134,
      "mer": 2135,
      "ply": 2136,
      "side": 2137,
      "llow": 2138,
      "mog": 2139,
      "actual": 2140,
      "hhhh": 2141,
      "based": 2142,
      "family": 2143,
      "automatically": 2144,
      "--": 2145,
      "mor": 2146,
      "uu": 2147,
      "💯💯": 2148,
      "ative": 2149,
      "sol": 2150,
      "comes": 2151,
      "buckle": 2152,
      "🚽🚽🚽🚽🚽🚽🚽🚽": 2153,
      "music": 2154,
      "millen": 2155,
      "aaaaaaaaaaaaaaaaaaaaaaaaaaaaaaaaaaaaa": 2156,
      "30": 2157,
      "pass": 2158,
      "liv": 2159,
      "mod": 2160,
      "rizzing": 2161,
      "both": 2162,
      "pped": 2163,
      "guys": 2164,
      "original": 2165,
      "satire": 2166,
      "goofy": 2167,
      ".*": 2168,
      "ying": 2169,
      "thats": 2170,
      "conf": 2171,
      "saw": 2172,
      "crazy": 2173,
      "bal": 2174,
      "hand": 2175,
      "ocky": 2176,
      "ping": 2177,
      "once": 2178,
      "copy": 2179,
      "without": 2180,
      "exact": 2181,
      "everything": 2182,
      "jokes": 2183,
      "kinda": 2184,
      "fire": 2185,
      "definite": 2186,
      "performed": 2187,
      "nut": 2188,
      "ual": 2189,
      "state": 2190,
      "belie": 2191,
      "lic": 2192,
      "place": 2193,
      "imag": 2194,
      "wolf": 2195,
      "concerns": 2196,
      "definitely": 2197,
      "ced": 2198,
      "ctive": 2199,
      "fall": 2200,
      "ates": 2201,
      "log": 2202,
      "proble": 2203,
      "younger": 2204,
      "bruh": 2205,
      "livvy": 2206,
      "14": 2207,
      "mas": 2208,
      "stra": 2209,
      "whatever": 2210,
      "home": 2211,
      "fect": 2212,
      "super": 2213,
      "complet": 2214,
      "!❓": 2215,
      "black": 2216,
      "cat": 2217,
      "ju": 2218,
      "vol": 2219,
      "went": 2220,
      "yle": 2221,
      "🏥🏥": 2222,
      "having": 2223,
      "add": 2224,
      "term": 2225,
      "older": 2226,
      "sussy": 2227,
      "normal": 2228,
      "half": 2229,
      "ca": 2230,
      "ja": 2231,
      "night": 2232,
      "port": 2233,
      "tre": 2234,
      "vid": 2235,
      "ouse": 2236,
      "itch": 2237,
      "idk": 2238,
      "edit": 2239,
      "ush": 2240,
      "wee": 2241,
      "ously": 2242,
      "epis": 2243,
      "ences": 2244,
      "shoe": 2245,
      "break": 2246,
      ").": 2247,
      "101": 2248,
      "?\"": 2249,
      "ele": 2250,
      "ip": 2251,
      "ka": 2252,
      "left": 2253,
      "expe": 2254,
      "speed": 2255,
      "entire": 2256,
      "different": 2257,
      "born": 2258,
      "dou": 2259,
      "fre": 2260,
      "fmy": 2261,
      "hor": 2262,
      "nite": 2263,
      "tt": 2264,
      "outo": 2265,
      "cho": 2266,
      "adul": 2267,
      "skibid": 2268,
      "short": 2269,
      "full": 2270,
      "getouto": 2271,
      "posts": 2272,
      "fmyhead": 2273,
      "getoutofmyhead": 2274,
      "cle": 2275,
      "cut": 2276,
      "rati": 2277,
      "ane": 2278,
      "anim": 2279,
      "cha": 2280,
      "cked": 2281,
      "moder": 2282,
      "butt": 2283,
      "yet": 2284,
      "known": 2285,
      "anymore": 2286,
      "playing": 2287,
      "tran": 2288,
      "correct": 2289,
      "miss": 2290,
      "evol": 2291,
      "media": 2292,
      "\",": 2293,
      "cess": 2294,
      "house": 2295,
      "mm": 2296,
      "ue": 2297,
      "👀👀": 2298,
      "goog": 2299,
      "⠀⠀⠀⠀⠀⠀⠀": 2300,
      "couldn": 2301,
      "singing": 2302,
      "fully": 2303,
      "getoutofmyheadgetoutofmyhead": 2304,
      "ratio": 2305,
      "bar": 2306,
      "dre": 2307,
      "dra": 2308,
      "nis": 2309,
      "ped": 2310,
      "pic": 2311,
      "sis": 2312,
      "ya": 2313,
      "za": 2314,
      "thers": 2315,
      "lore": 2316,
      "agree": 2317,
      "type": 2318,
      "????": 2319,
      "dunne": 2320,
      "\".": 2321,
      "\\*": 2322,
      "aut": 2323,
      "dri": 2324,
      "mit": 2325,
      "win": 2326,
      "ens": 2327,
      "str": 2328,
      "stro": 2329,
      "white": 2330,
      "posed": 2331,
      "gets": 2332,
      "ately": 2333,
      "experi": 2334,
      "else": 2335,
      "seems": 2336,
      "joy": 2337,
      "spect": 2338,
      "tention": 2339,
      "achad": 2340,
      "sticking": 2341,
      "gigachad": 2342,
      "69": 2343,
      "aking": 2344,
      "cli": 2345,
      "ually": 2346,
      "🍷🍷": 2347,
      "rest": 2348,
      "beg": 2349,
      "cant": 2350,
      "grind": 2351,
      "blox": 2352,
      "fortnite": 2353,
      "0s": 2354,
      "cy": 2355,
      "hour": 2356,
      "lled": 2357,
      "mine": 2358,
      "sad": 2359,
      "tou": 2360,
      "ism": 2361,
      "tom": 2362,
      "roblox": 2363,
      "form": 2364,
      "lost": 2365,
      "wasn": 2366,
      "box": 2367,
      "context": 2368,
      "ations": 2369,
      "spon": 2370,
      "looking": 2371,
      "story": 2372,
      "month": 2373,
      "ized": 2374,
      "yyyy": 2375,
      "food": 2376,
      "consider": 2377,
      ";|": 2378,
      "por": 2379,
      "sw": 2380,
      "became": 2381,
      "secon": 2382,
      "ung": 2383,
      "lose": 2384,
      "shor": 2385,
      "death": 2386,
      "ics": 2387,
      "ump": 2388,
      "explain": 2389,
      "duke": 2390,
      "colle": 2391,
      "phrase": 2392,
      "millenni": 2393,
      "google": 2394,
      ";|&#": 2395,
      "bring": 2396,
      "fine": 2397,
      "fact": 2398,
      "ial": 2399,
      "ling": 2400,
      "pur": 2401,
      "yt": 2402,
      "rew": 2403,
      "amog": 2404,
      "holy": 2405,
      "brother": 2406,
      "ize": 2407,
      "answer": 2408,
      "descri": 2409,
      "skin": 2410,
      "commun": 2411,
      "drink": 2412,
      "bh": 2413,
      "bur": 2414,
      "cum": 2415,
      "cent": 2416,
      "case": 2417,
      "done": 2418,
      "gro": 2419,
      "ie": 2420,
      "run": 2421,
      "anno": 2422,
      "almost": 2423,
      "enter": 2424,
      "cking": 2425,
      "ween": 2426,
      "pose": 2427,
      "⣿⣿⣿": 2428,
      "yourself": 2429,
      "save": 2430,
      "needs": 2431,
      "10000": 2432,
      "basically": 2433,
      "ironically": 2434,
      "help": 2435,
      "amogus": 2436,
      "bidi": 2437,
      "bul": 2438,
      "found": 2439,
      "😎😎": 2440,
      "ined": 2441,
      "respect": 2442,
      "isten": 2443,
      "und": 2444,
      "pping": 2445,
      "que": 2446,
      "follow": 2447,
      "dennis": 2448,
      "obvi": 2449,
      "bra": 2450,
      "bers": 2451,
      "cus": 2452,
      "hur": 2453,
      "ii": 2454,
      "ian": 2455,
      "ness": 2456,
      "ot": 2457,
      "rr": 2458,
      "wish": 2459,
      "cook": 2460,
      "absol": 2461,
      "book": 2462,
      "⠀⠀⠀⠀⠀": 2463,
      "boomer": 2464,
      "nonsense": 2465,
      "ama": 2466,
      "fut": 2467,
      "fast": 2468,
      "land": 2469,
      "mate": 2470,
      "vor": 2471,
      "⭕⭕": 2472,
      "leg": 2473,
      "change": 2474,
      "haven": 2475,
      "hey": 2476,
      "forgot": 2477,
      "wear": 2478,
      "0101": 2479,
      "happened": 2480,
      "foot": 2481,
      "check": 2482,
      "sentence": 2483,
      "believe": 2484,
      "gone": 2485,
      "grow": 2486,
      "late": 2487,
      "tate": 2488,
      "vir": 2489,
      "inste": 2490,
      "mew": 2491,
      "style": 2492,
      "lion": 2493,
      "ared": 2494,
      "⣿⣿⣿⣿⣿": 2495,
      "watched": 2496,
      "prof": 2497,
      "absolut": 2498,
      "),": 2499,
      "dle": 2500,
      "gar": 2501,
      "hy": 2502,
      "num": 2503,
      "pun": 2504,
      "spo": 2505,
      "vis": 2506,
      "val": 2507,
      "wom": 2508,
      "🤯🤯": 2509,
      "oud": 2510,
      "remo": 2511,
      "ition": 2512,
      "tory": 2513,
      "chang": 2514,
      "mad": 2515,
      "shut": 2516,
      "del": 2517,
      "poss": 2518,
      "test": 2519,
      "spr": 2520,
      "between": 2521,
      "finally": 2522,
      "syn": 2523,
      "refers": 2524,
      "imagine": 2525,
      "completely": 2526,
      "ipad": 2527,
      "16": 2528,
      "bed": 2529,
      "nu": 2530,
      "zing": 2531,
      "⣀⣀": 2532,
      "erm": 2533,
      "online": 2534,
      "repe": 2535,
      "rent": 2536,
      "stay": 2537,
      "andrew": 2538,
      "chad": 2539,
      "soon": 2540,
      "goes": 2541,
      "gest": 2542,
      "usually": 2543,
      "mother": 2544,
      "dog": 2545,
      "terms": 2546,
      "yeet": 2547,
      "exam": 2548,
      "joh": 2549,
      "generations": 2550,
      "nice": 2551,
      "subreddit": 2552,
      "rooms": 2553,
      "exactly": 2554,
      "problem": 2555,
      "transl": 2556,
      "hours": 2557,
      "touch": 2558,
      "future": 2559,
      "instead": 2560,
      "possi": 2561,
      "18": 2562,
      "clear": 2563,
      "dig": 2564,
      "fig": 2565,
      "lers": 2566,
      "sou": 2567,
      "sum": 2568,
      "sau": 2569,
      "tv": 2570,
      "respon": 2571,
      "main": 2572,
      "une": 2573,
      "version": 2574,
      "deep": 2575,
      "sometimes": 2576,
      "himself": 2577,
      "0111": 2578,
      "ending": 2579,
      "appe": 2580,
      "turn": 2581,
      "202": 2582,
      "seriously": 2583,
      "middle": 2584,
      "swag": 2585,
      "99": 2586,
      "fac": 2587,
      "others": 2588,
      "ys": 2589,
      "🤬😡": 2590,
      "attention": 2591,
      "ene": 2592,
      "beat": 2593,
      "chan": 2594,
      "lls": 2595,
      "vers": 2596,
      "rather": 2597,
      "iction": 2598,
      "aura": 2599,
      "bage": 2600,
      "uring": 2601,
      "poster": 2602,
      "fake": 2603,
      "women": 2604,
      "americ": 2605,
      "supposed": 2606,
      "girls": 2607,
      "gooning": 2608,
      "bussin": 2609,
      "^^": 2610,
      "bs": 2611,
      "bunch": 2612,
      "dance": 2613,
      "fli": 2614,
      "hind": 2615,
      "vil": 2616,
      "ature": 2617,
      "enjoy": 2618,
      "ars": 2619,
      "bear": 2620,
      "hilar": 2621,
      "oney": 2622,
      "ific": 2623,
      "exp": 2624,
      "thinks": 2625,
      "died": 2626,
      "heads": 2627,
      "trash": 2628,
      "pray": 2629,
      "mention": 2630,
      "voice": 2631,
      "small": 2632,
      "learn": 2633,
      "uggy": 2634,
      "maxxing": 2635,
      "straight": 2636,
      "cing": 2637,
      "cry": 2638,
      "ded": 2639,
      "fil": 2640,
      "ution": 2641,
      "throw": 2642,
      "issu": 2643,
      "behind": 2644,
      "ents": 2645,
      "grad": 2646,
      "gotta": 2647,
      "caught": 2648,
      "viol": 2649,
      "single": 2650,
      "turned": 2651,
      "😂😂😂": 2652,
      "appro": 2653,
      "truly": 2654,
      "💀💀💀💀💀💀💀💀": 2655,
      "cuz": 2656,
      "modern": 2657,
      "john": 2658,
      "hilarious": 2659,
      "bum": 2660,
      "bird": 2661,
      "free": 2662,
      "kin": 2663,
      "money": 2664,
      "ode": 2665,
      "ron": 2666,
      "troll": 2667,
      "x200": 2668,
      "🙏🙏": 2669,
      "attra": 2670,
      "reg": 2671,
      "ital": 2672,
      "itself": 2673,
      "peak": 2674,
      "rizzed": 2675,
      "⠀⠀⠀⠀⠀⠀": 2676,
      "meant": 2677,
      "olds": 2678,
      "ended": 2679,
      "spec": 2680,
      "bull": 2681,
      "pie": 2682,
      "🔥🔥🔥🔥": 2683,
      "etc": 2684,
      "angelo": 2685,
      "trend": 2686,
      "current": 2687,
      "x200b": 2688,
      ",\"": 2689,
      "cla": 2690,
      "eat": 2691,
      "eas": 2692,
      "fing": 2693,
      "fle": 2694,
      "gma": 2695,
      "oi": 2696,
      "sle": 2697,
      "send": 2698,
      "tbh": 2699,
      "ws": 2700,
      "told": 2701,
      "allow": 2702,
      "arch": 2703,
      "chill": 2704,
      "forget": 2705,
      "verse": 2706,
      "dom": 2707,
      "nel": 2708,
      "tem": 2709,
      "***": 2710,
      "mental": 2711,
      "dick": 2712,
      "posting": 2713,
      "seeing": 2714,
      "spice": 2715,
      "nathan": 2716,
      "happy": 2717,
      "deser": 2718,
      "wards": 2719,
      "twitch": 2720,
      "sexual": 2721,
      "expected": 2722,
      "band": 2723,
      "count": 2724,
      "each": 2725,
      "fat": 2726,
      "sun": 2727,
      "sil": 2728,
      "squ": 2729,
      "train": 2730,
      "zoo": 2731,
      "istic": 2732,
      "took": 2733,
      "ale": 2734,
      "eng": 2735,
      "sta": 2736,
      "rible": 2737,
      "hea": 2738,
      "poor": 2739,
      "acting": 2740,
      "fell": 2741,
      "knows": 2742,
      "thinking": 2743,
      "💀💀💀": 2744,
      "broken": 2745,
      "takes": 2746,
      "cord": 2747,
      "hitting": 2748,
      "🤣🤣🤣": 2749,
      "episode": 2750,
      "begin": 2751,
      "annoying": 2752,
      "##": 2753,
      "bust": 2754,
      "ces": 2755,
      "iel": 2756,
      "phas": 2757,
      "res": 2758,
      "ishow": 2759,
      "ities": 2760,
      "beha": 2761,
      "haw": 2762,
      "bom": 2763,
      "worst": 2764,
      "ulti": 2765,
      "ppy": 2766,
      "qui": 2767,
      "plan": 2768,
      "general": 2769,
      "wants": 2770,
      "contin": 2771,
      "dama": 2772,
      "hahahaha": 2773,
      "writ": 2774,
      "months": 2775,
      "example": 2776,
      "bullshit": 2777,
      "bin": 2778,
      "fred": 2779,
      "ming": 2780,
      "pain": 2781,
      "vs": 2782,
      "😂🤣": 2783,
      "invol": 2784,
      "reaction": 2785,
      "asked": 2786,
      "chung": 2787,
      "move": 2788,
      "shoo": 2789,
      "likes": 2790,
      "wel": 2791,
      "ters": 2792,
      "imposter": 2793,
      "except": 2794,
      "ages": 2795,
      "wouldn": 2796,
      "fair": 2797,
      "apparent": 2798,
      "early": 2799,
      "access": 2800,
      "stream": 2801,
      "streamer": 2802,
      "🚽🚽🚽🚽🚽🚽🚽🚽🚽🚽🚽🚽🚽🚽🚽🚽": 2803,
      "week": 2804,
      "stroke": 2805,
      "experience": 2806,
      "grindset": 2807,
      "100000": 2808,
      "behavi": 2809,
      "chungus": 2810,
      "17": 2811,
      ";;": 2812,
      "__": 2813,
      "cab": 2814,
      "ged": 2815,
      "gun": 2816,
      "gmod": 2817,
      "ker": 2818,
      "mf": 2819,
      "sme": 2820,
      "ton": 2821,
      "vin": 2822,
      "water": 2823,
      "rele": 2824,
      "toge": 2825,
      "along": 2826,
      "ality": 2827,
      "lead": 2828,
      "ident": 2829,
      "till": 2830,
      "uni": 2831,
      "wild": 2832,
      "movie": 2833,
      "pot": 2834,
      "sign": 2835,
      "sigmas": 2836,
      "option": 2837,
      "tel": 2838,
      "ility": 2839,
      "01100": 2840,
      "typ": 2841,
      "epic": 2842,
      "calling": 2843,
      "balls": 2844,
      "drome": 2845,
      "speaker": 2846,
      "syndrome": 2847,
      "channel": 2848,
      "together": 2849,
      "50": 2850,
      "bid": 2851,
      "gs": 2852,
      "lad": 2853,
      "listen": 2854,
      "vic": 2855,
      "ener": 2856,
      "becoming": 2857,
      "key": 2858,
      "ays": 2859,
      "cover": 2860,
      "likely": 2861,
      "rage": 2862,
      "fuq": 2863,
      "worry": 2864,
      "sud": 2865,
      "grou": 2866,
      "grand": 2867,
      "ground": 2868,
      "ants": 2869,
      "aged": 2870,
      "backrooms": 2871,
      "vice": 2872,
      "???": 2873,
      "understanding": 2874,
      "fron": 2875,
      "games": 2876,
      "certain": 2877,
      "smur": 2878,
      "amongus": 2879,
      "battle": 2880,
      "pub": 2881,
      "confused": 2882,
      "adult": 2883,
      "possible": 2884,
      "apparently": 2885,
      ".)": 2886,
      "3am": 2887,
      "air": 2888,
      "bf": 2889,
      "catch": 2890,
      "cave": 2891,
      "dan": 2892,
      "date": 2893,
      "ety": 2894,
      "gor": 2895,
      "gave": 2896,
      "huh": 2897,
      "nn": 2898,
      "none": 2899,
      "ror": 2900,
      "sco": 2901,
      "sical": 2902,
      "table": 2903,
      "wg": 2904,
      "wow": 2905,
      "ze": 2906,
      "🍔🍔": 2907,
      "📸📸": 2908,
      "🔫😠": 2909,
      "recent": 2910,
      "ists": 2911,
      "nobody": 2912,
      "search": 2913,
      "devil": 2914,
      "neg": 2915,
      "homa": 2916,
      "lahoma": 2917,
      "ssed": 2918,
      "history": 2919,
      "job": 2920,
      "reality": 2921,
      "goddamn": 2922,
      "boys": 2923,
      "craft": 2924,
      "against": 2925,
      "boomers": 2926,
      "teenag": 2927,
      "emotion": 2928,
      "autism": 2929,
      "millennial": 2930,
      "unders": 2931,
      "obviously": 2932,
      "nathaniel": 2933,
      "ishowspeed": 2934,
      "damage": 2935,
      "freddy": 2936,
      "sudden": 2937,
      "front": 2938,
      "smurf": 2939,
      "ace": 2940,
      "bor": 2941,
      "city": 2942,
      "during": 2943,
      "fro": 2944,
      "fla": 2945,
      "kam": 2946,
      "pis": 2947,
      "pen": 2948,
      "ris": 2949,
      "sli": 2950,
      "sla": 2951,
      "ward": 2952,
      "🇰🇿": 2953,
      "remind": 2954,
      "bes": 2955,
      "master": 2956,
      "absur": 2957,
      "delet": 2958,
      "polit": 2959,
      "power": 2960,
      "hole": 2961,
      "exc": 2962,
      "okay": 2963,
      "oklahoma": 2964,
      "bait": 2965,
      "aint": 2966,
      "society": 2967,
      "vote": 2968,
      "named": 2969,
      "giving": 2970,
      "longer": 2971,
      "account": 2972,
      "title": 2973,
      "camera": 2974,
      "second": 2975,
      "figure": 2976,
      ".”": 2977,
      "bly": 2978,
      "bber": 2979,
      "cour": 2980,
      "dar": 2981,
      "eyes": 2982,
      "flu": 2983,
      "gart": 2984,
      "ile": 2985,
      "kar": 2986,
      "mass": 2987,
      "sal": 2988,
      "sort": 2989,
      "tune": 2990,
      "wu": 2991,
      "outh": 2992,
      "ret": 2993,
      "ised": 2994,
      "stru": 2995,
      "youre": 2996,
      "ries": 2997,
      "cold": 2998,
      "boi": 2999,
      "hold": 3000,
      "gram": 3001,
      "proper": 3002,
      "cial": 3003,
      "males": 3004,
      "father": 3005,
      "contro": 3006,
      "!!!!!!!!": 3007,
      "enced": 3008,
      "happens": 3009,
      "fortun": 3010,
      "laughing": 3011,
      "pasta": 3012,
      "clue": 3013,
      "😔😔😔😔😔😔😔😔": 3014,
      "double": 3015,
      "shorts": 3016,
      "removed": 3017,
      "piece": 3018,
      "phase": 3019,
      "public": 3020,
      "cs": 3021,
      "cou": 3022,
      "cas": 3023,
      "dd": 3024,
      "ez": 3025,
      "fm": 3026,
      "mouth": 3027,
      "ome": 3028,
      "pan": 3029,
      "pat": 3030,
      "sam": 3031,
      "uine": 3032,
      "var": 3033,
      "vent": 3034,
      "yr": 3035,
      "….": 3036,
      "️⃣": 3037,
      "inion": 3038,
      "intel": 3039,
      "mess": 3040,
      "tood": 3041,
      "stant": 3042,
      "step": 3043,
      "accept": 3044,
      "yea": 3045,
      "genuine": 3046,
      "taking": 3047,
      "opinion": 3048,
      "exist": 3049,
      "slay": 3050,
      "rules": 3051,
      "perfect": 3052,
      "pres": 3053,
      "looked": 3054,
      "talent": 3055,
      "banned": 3056,
      "bud": 3057,
      "damu": 3058,
      "starting": 3059,
      "uses": 3060,
      "sensical": 3061,
      "trans": 3062,
      "wake": 3063,
      "dafuq": 3064,
      "minut": 3065,
      "shot": 3066,
      "bottom": 3067,
      "blood": 3068,
      "blue": 3069,
      "simply": 3070,
      "nonsensical": 3071,
      "flor": 3072,
      "inside": 3073,
      "insane": 3074,
      "tried": 3075,
      "🗿🗿🗿🗿": 3076,
      "giga": 3077,
      "wonder": 3078,
      "large": 3079,
      "walk": 3080,
      "nuts": 3081,
      "drip": 3082,
      "understood": 3083,
      ":**": 3084,
      "bby": 3085,
      "gang": 3086,
      "hu": 3087,
      "ia": 3088,
      "link": 3089,
      "list": 3090,
      "later": 3091,
      "xic": 3092,
      "⠉⠉": 3093,
      "⠛⠛": 3094,
      "thy": 3095,
      "ani": 3096,
      "alone": 3097,
      "ord": 3098,
      "ida": 3099,
      "lling": 3100,
      "cog": 3101,
      "load": 3102,
      "dow": 3103,
      "erest": 3104,
      "def": 3105,
      "poin": 3106,
      "fur": 3107,
      "hood": 3108,
      "cannot": 3109,
      "tech": 3110,
      "fuckin": 3111,
      "ilar": 3112,
      "ruined": 3113,
      "favor": 3114,
      "discord": 3115,
      "minds": 3116,
      "similar": 3117,
      "⣿⣿⣿⣿⣿⣿⣿⣿⣿⣿⣿⣿": 3118,
      "mix": 3119,
      "screen": 3120,
      "skibidy": 3121,
      "getoutofmyheadgetoutofmyheadgetoutofmyheadgetoutofmyhead": 3122,
      "minecraft": 3123,
      "cummy": 3124,
      "amazing": 3125,
      "viral": 3126,
      "garbage": 3127,
      "woman": 3128,
      "changed": 3129,
      "hawk": 3130,
      "welcome": 3131,
      "energy": 3132,
      "garten": 3133,
      "damudamu": 3134,
      "favorite": 3135,
      "24": 3136,
      "5am": 3137,
      "close": 3138,
      "ech": 3139,
      "flo": 3140,
      "ik": 3141,
      "pay": 3142,
      "ridi": 3143,
      "👟👟": 3144,
      "thro": 3145,
      "three": 3146,
      "insu": 3147,
      "inclu": 3148,
      "ons": 3149,
      "reply": 3150,
      "stal": 3151,
      "velo": 3152,
      "lil": 3153,
      "limit": 3154,
      "heart": 3155,
      "unfortun": 3156,
      "amp": 3157,
      "usion": 3158,
      "zzy": 3159,
      "defe": 3160,
      "demon": 3161,
      "develo": 3162,
      "outside": 3163,
      "west": 3164,
      "wever": 3165,
      "near": 3166,
      "rizzlers": 3167,
      "upon": 3168,
      "hot": 3169,
      "however": 3170,
      "suck": 3171,
      "tex": 3172,
      "complain": 3173,
      "extre": 3174,
      "shitpost": 3175,
      "rule": 3176,
      "seem": 3177,
      "speech": 3178,
      "faz": 3179,
      "discus": 3180,
      "offic": 3181,
      "starts": 3182,
      "feels": 3183,
      "interest": 3184,
      "⠀⠀⠀⠀⠀⠀⠀⠀⠀⠀⠀⠀⠀⠀⠀⠀": 3185,
      "corn": 3186,
      "biggest": 3187,
      "eeee": 3188,
      "ggers": 3189,
      "earth": 3190,
      "flush": 3191,
      "anky": 3192,
      "oooooooo": 3193,
      "drop": 3194,
      "teacher": 3195,
      "effect": 3196,
      "zaza": 3197,
      "community": 3198,
      "absolutely": 3199,
      "soul": 3200,
      "sauce": 3201,
      "sleep": 3202,
      "negative": 3203,
      "genuinely": 3204,
      "florida": 3205,
      ":(": 3206,
      "?”": 3207,
      "ben": 3208,
      "bare": 3209,
      "cast": 3210,
      "ems": 3211,
      "fit": 3212,
      "fra": 3213,
      "fight": 3214,
      "hen": 3215,
      "hes": 3216,
      "ier": 3217,
      "ium": 3218,
      "lly": 3219,
      "lanky": 3220,
      "rad": 3221,
      "smo": 3222,
      "swear": 3223,
      "”.": 3224,
      "🟥🟥": 3225,
      "incre": 3226,
      "alive": 3227,
      "star": 3228,
      "stree": 3229,
      "ory": 3230,
      "lea": 3231,
      "edu": 3232,
      "chu": 3233,
      "map": 3234,
      "vem": 3235,
      "unironically": 3236,
      "abab": 3237,
      "boo": 3238,
      "boss": 3239,
      "sigh": 3240,
      "tuah": 3241,
      "ames": 3242,
      "odes": 3243,
      "stopped": 3244,
      "feeling": 3245,
      "references": 3246,
      "turns": 3247,
      "giant": 3248,
      "moments": 3249,
      "partic": 3250,
      "definition": 3251,
      "titan": 3252,
      "ship": 3253,
      "🏥🏥🏥🏥": 3254,
      "episodes": 3255,
      "clean": 3256,
      "👀👀👀👀": 3257,
      "describe": 3258,
      "drinking": 3259,
      "football": 3260,
      "punish": 3261,
      "sprite": 3262,
      "explo": 3263,
      "🔫😠🔫😠": 3264,
      "karma": 3265,
      "extreme": 3266,
      "bon": 3267,
      "clo": 3268,
      "gra": 3269,
      "ji": 3270,
      "jok": 3271,
      "james": 3272,
      "nuh": 3273,
      "phe": 3274,
      "rup": 3275,
      "woo": 3276,
      "ym": 3277,
      "”,": 3278,
      "stare": 3279,
      "asking": 3280,
      "associ": 3281,
      "asses": 3282,
      "chee": 3283,
      "heal": 3284,
      "gold": 3285,
      "user": 3286,
      "doo": 3287,
      "deed": 3288,
      "poggers": 3289,
      "letter": 3290,
      "terrible": 3291,
      "bots": 3292,
      "taken": 3293,
      "canon": 3294,
      "00100000": 3295,
      "extra": 3296,
      "grade": 3297,
      "omg": 3298,
      "01101": 3299,
      "cially": 3300,
      "realize": 3301,
      "phones": 3302,
      "player": 3303,
      "monday": 3304,
      "stud": 3305,
      "shower": 3306,
      "grew": 3307,
      "😂😂😂😂": 3308,
      "learned": 3309,
      "image": 3310,
      "bitch": 3311,
      "😱😱😱😱": 3312,
      "ject": 3313,
      "---": 3314,
      "chaos": 3315,
      "evolution": 3316,
      "dream": 3317,
      "entertain": 3318,
      "number": 3319,
      "translate": 3320,
      "american": 3321,
      "issue": 3322,
      "intelli": 3323,
      "\"\"": 3324,
      "bt": 3325,
      "bil": 3326,
      "dat": 3327,
      "gay": 3328,
      "gaming": 3329,
      "knew": 3330,
      "lin": 3331,
      "nic": 3332,
      "phi": 3333,
      "rid": 3334,
      "va": 3335,
      "xd": 3336,
      "zard": 3337,
      "══": 3338,
      "⣤⣤": 3339,
      "🤬🤬": 3340,
      "thetic": 3341,
      "reci": 3342,
      "ited": 3343,
      "alright": 3344,
      "secre": 3345,
      "hair": 3346,
      "tim": 3347,
      "utter": 3348,
      "cost": 3349,
      "coems": 3350,
      "users": 3351,
      "domin": 3352,
      "abor": 3353,
      "dep": 3354,
      "deal": 3355,
      "dear": 3356,
      "neigh": 3357,
      "gent": 3358,
      "working": 3359,
      "ault": 3360,
      "fet": 3361,
      "convers": 3362,
      "0000": 3363,
      "team": 3364,
      "ational": 3365,
      "anyway": 3366,
      "fucked": 3367,
      "bath": 3368,
      "join": 3369,
      "spir": 3370,
      "bles": 3371,
      "scared": 3372,
      "scene": 3373,
      "dist": 3374,
      "subway": 3375,
      "glad": 3376,
      "happening": 3377,
      "laughed": 3378,
      "2010": 3379,
      "milk": 3380,
      "million": 3381,
      "element": 3382,
      "adults": 3383,
      "animation": 3384,
      "correctly": 3385,
      "clearly": 3386,
      "finger": 3387,
      "emotional": 3388,
      "frog": 3389,
      "bberish": 3390,
      "fazbear": 3391,
      "leaving": 3392,
      "90": 3393,
      "cir": 3394,
      "ior": 3395,
      "ko": 3396,
      "pra": 3397,
      "pil": 3398,
      "rist": 3399,
      "sfm": 3400,
      "van": 3401,
      "wed": 3402,
      "wers": 3403,
      "wuggy": 3404,
      "⢸⣿": 3405,
      "🗿🍷": 3406,
      "thug": 3407,
      "rep": 3408,
      "ora": 3409,
      "lean": 3410,
      "ided": 3411,
      "nostal": 3412,
      "novem": 3413,
      "beast": 3414,
      "ayo": 3415,
      "kiki": 3416,
      "killed": 3417,
      "unless": 3418,
      "unexpected": 3419,
      "vern": 3420,
      "pos": 3421,
      "posit": 3422,
      "somehow": 3423,
      "felt": 3424,
      "suc": 3425,
      "compre": 3426,
      "angry": 3427,
      "quand": 3428,
      "quir": 3429,
      "els": 3430,
      "posted": 3431,
      "spend": 3432,
      "fail": 3433,
      "scare": 3434,
      "selves": 3435,
      "due": 3436,
      "stuck": 3437,
      "creator": 3438,
      "proud": 3439,
      "izing": 3440,
      "telling": 3441,
      "write": 3442,
      "fix": 3443,
      "aughter": 3444,
      "gibberish": 3445,
      "mark": 3446,
      "streak": 3447,
      "flaming": 3448,
      "⣿⣿⣿⣿⣿⣿⣿⣿⣿": 3449,
      "hearing": 3450,
      "🍑🍑🍑🍑🍑🍑": 3451,
      "trends": 3452,
      "copypasta": 3453,
      "picture": 3454,
      "strange": 3455,
      "yyyyyyyy": 3456,
      "seconds": 3457,
      "college": 3458,
      "purpose": 3459,
      "cooked": 3460,
      "profess": 3461,
      "appropri": 3462,
      "allowed": 3463,
      "recently": 3464,
      "course": 3465,
      "couple": 3466,
      "points": 3467,
      "unfortunately": 3468,
      "particular": 3469,
      "secret": 3470,
      "november": 3471,
      "flamingo": 3472,
      "!?": 3473,
      "ao": 3474,
      "dating": 3475,
      "fers": 3476,
      "fol": 3477,
      "io": 3478,
      "ili": 3479,
      "ived": 3480,
      "ky": 3481,
      "mc": 3482,
      "mg": 3483,
      "mur": 3484,
      "nat": 3485,
      "nar": 3486,
      "oz": 3487,
      "san": 3488,
      "sna": 3489,
      "tally": 3490,
      "ukam": 3491,
      "🍋🍋": 3492,
      "😍😍": 3493,
      "😬😬": 3494,
      "🥳🥳": 3495,
      "🪇🪇": 3496,
      "indeed": 3497,
      "ats": 3498,
      "atta": 3499,
      "mes": 3500,
      "totally": 3501,
      "ors": 3502,
      "order": 3503,
      "ides": 3504,
      "beau": 3505,
      "chall": 3506,
      "rock": 3507,
      "kes": 3508,
      "ket": 3509,
      "mac": 3510,
      "liked": 3511,
      "adin": 3512,
      "adder": 3513,
      "goated": 3514,
      "tia": 3515,
      "tiv": 3516,
      "tiful": 3517,
      "shout": 3518,
      "demen": 3519,
      "poop": 3520,
      "ional": 3521,
      "tern": 3522,
      "audi": 3523,
      "feed": 3524,
      "sucks": 3525,
      "impress": 3526,
      "express": 3527,
      "shitty": 3528,
      "cip": 3529,
      "scri": 3530,
      "mostly": 3531,
      "office": 3532,
      "played": 3533,
      "wanted": 3534,
      "shouldn": 3535,
      "forever": 3536,
      "mature": 3537,
      "youtubers": 3538,
      "surpr": 3539,
      "humorous": 3540,
      "screaming": 3541,
      "ironic": 3542,
      "teens": 3543,
      "prime": 3544,
      "198": 3545,
      "related": 3546,
      "phras": 3547,
      "ensive": 3548,
      "click": 3549,
      "⭕⭕⭕⭕": 3550,
      "specific": 3551,
      "silly": 3552,
      "group": 3553,
      "dancing": 3554,
      "pilled": 3555,
      "quandale": 3556,
      "beautiful": 3557,
      "dementia": 3558,
      "23": 3559,
      "25": 3560,
      "40": 3561,
      ":)": 3562,
      "awe": 3563,
      "base": 3564,
      "cred": 3565,
      "dj": 3566,
      "eating": 3567,
      "fic": 3568,
      "gta": 3569,
      "ls": 3570,
      "lunch": 3571,
      "oki": 3572,
      "porn": 3573,
      "wro": 3574,
      "wall": 3575,
      "wise": 3576,
      "zest": 3577,
      "😡😡": 3578,
      "thread": 3579,
      "influ": 3580,
      "metal": 3581,
      "tori": 3582,
      "ala": 3583,
      "stan": 3584,
      "stri": 3585,
      "sequ": 3586,
      "lied": 3587,
      "lies": 3588,
      "espe": 3589,
      "gods": 3590,
      "tired": 3591,
      "core": 3592,
      "cock": 3593,
      "aman": 3594,
      "ambat": 3595,
      "skills": 3596,
      "ussy": 3597,
      "skibbidi": 3598,
      "mods": 3599,
      "ability": 3600,
      "deez": 3601,
      "tually": 3602,
      "open": 3603,
      "fem": 3604,
      "fear": 3605,
      "sume": 3606,
      "confir": 3607,
      "ssss": 3608,
      "baka": 3609,
      "dies": 3610,
      "quite": 3611,
      "quality": 3612,
      "plac": 3613,
      "scat": 3614,
      "phan": 3615,
      "1111": 3616,
      "intro": 3617,
      "created": 3618,
      "boyfriend": 3619,
      "youtuber": 3620,
      "parenting": 3621,
      "gger": 3622,
      "obse": 3623,
      "dingle": 3624,
      "crit": 3625,
      "atory": 3626,
      "decade": 3627,
      "relation": 3628,
      "falling": 3629,
      "millennials": 3630,
      "response": 3631,
      "mentioned": 3632,
      "crying": 3633,
      "violent": 3634,
      "writing": 3635,
      "behavior": 3636,
      "suddenly": 3637,
      "omega": 3638,
      "minutes": 3639,
      "anime": 3640,
      "ridicul": 3641,
      "barely": 3642,
      "punishment": 3643,
      "conversation": 3644,
      "zesty": 3645,
      "especially": 3646,
      "ambatukam": 3647,
      "1st": 3648,
      "bye": 3649,
      "ek": 3650,
      "fn": 3651,
      "fill": 3652,
      "figh": 3653,
      "fiction": 3654,
      "ges": 3655,
      "glit": 3656,
      "gpt": 3657,
      "huggy": 3658,
      "imo": 3659,
      "jes": 3660,
      "punch": 3661,
      "rass": 3662,
      "sat": 3663,
      "tar": 3664,
      "ues": 3665,
      "uation": 3666,
      "uwu": 3667,
      "❓❓": 3668,
      "💩💩": 3669,
      "theory": 3670,
      "onto": 3671,
      "resu": 3672,
      "ito": 3673,
      "toxic": 3674,
      "lect": 3675,
      "leap": 3676,
      "iday": 3677,
      "christ": 3678,
      "lived": 3679,
      "ayay": 3680,
      "tice": 3681,
      "wizard": 3682,
      "lock": 3683,
      "logy": 3684,
      "shall": 3685,
      "shop": 3686,
      "destro": 3687,
      "rizzly": 3688,
      "gym": 3689,
      ".....": 3690,
      "lets": 3691,
      "anger": 3692,
      "ulation": 3693,
      "process": 3694,
      "pline": 3695,
      "brains": 3696,
      "everywhere": 3697,
      "gue": 3698,
      "space": 3699,
      "themselves": 3700,
      "speaking": 3701,
      "fans": 3702,
      "berry": 3703,
      "disrespect": 3704,
      "cringey": 3705,
      "pipe": 3706,
      "hhh": 3707,
      "10am": 3708,
      "dition": 3709,
      "ngl": 3710,
      "trump": 3711,
      "matter": 3712,
      "dawg": 3713,
      "referring": 3714,
      "crap": 3715,
      "🔥🔥🔥": 3716,
      "songs": 3717,
      "event": 3718,
      "evil": 3719,
      "famous": 3720,
      "killing": 3721,
      "surfers": 3722,
      "humorously": 3723,
      "awk": 3724,
      "bling": 3725,
      "ctions": 3726,
      "characters": 3727,
      "commit": 3728,
      "difference": 3729,
      "walked": 3730,
      "humanity": 3731,
      "effort": 3732,
      "looksmaxxing": 3733,
      "expect": 3734,
      "grown": 3735,
      "queen": 3736,
      "absolute": 3737,
      "visit": 3738,
      "regular": 3739,
      "continue": 3740,
      "😂🤣😂🤣": 3741,
      "teenagers": 3742,
      "piss": 3743,
      "slap": 3744,
      "natur": 3745,
      "wrote": 3746,
      "glitch": 3747,
      "jesus": 3748,
      "37": 3749,
      "apo": 3750,
      "card": 3751,
      "coff": 3752,
      "dru": 3753,
      "diction": 3754,
      "daughter": 3755,
      "eld": 3756,
      "fas": 3757,
      "fly": 3758,
      "ffer": 3759,
      "gli": 3760,
      "jel": 3761,
      "kan": 3762,
      "lat": 3763,
      "mic": 3764,
      "mers": 3765,
      "mary": 3766,
      "multi": 3767,
      "nam": 3768,
      "pho": 3769,
      "pred": 3770,
      "rise": 3771,
      "swe": 3772,
      "sir": 3773,
      "sour": 3774,
      "ub": 3775,
      "wy": 3776,
      "wast": 3777,
      "zed": 3778,
      "👿👿": 3779,
      "report": 3780,
      "recog": 3781,
      "ising": 3782,
      "aling": 3783,
      "stic": 3784,
      "aring": 3785,
      "lyri": 3786,
      "kevin": 3787,
      "rick": 3788,
      "esh": 3789,
      "admit": 3790,
      "goals": 3791,
      "unt": 3792,
      "igno": 3793,
      "amount": 3794,
      "ably": 3795,
      "rap": 3796,
      "within": 3797,
      "upvote": 3798,
      "yep": 3799,
      "worth": 3800,
      "works": 3801,
      "constant": 3802,
      "imp": 3803,
      "import": 3804,
      "exe": 3805,
      "bag": 3806,
      "didnt": 3807,
      "ruin": 3808,
      "funni": 3809,
      "ively": 3810,
      "dying": 3811,
      "scary": 3812,
      "dub": 3813,
      "friday": 3814,
      "matic": 3815,
      "showed": 3816,
      "smart": 3817,
      "dump": 3818,
      "track": 3819,
      "compil": 3820,
      "mush": 3821,
      "ears": 3822,
      "curi": 3823,
      "pack": 3824,
      "becomes": 3825,
      "carto": 3826,
      "lightskin": 3827,
      "walking": 3828,
      "period": 3829,
      "teachers": 3830,
      "cameraman": 3831,
      "pull": 3832,
      "straw": 3833,
      "complete": 3834,
      "jud": 3835,
      "sisy": 3836,
      "sister": 3837,
      "autistic": 3838,
      "pork": 3839,
      "entered": 3840,
      "obvious": 3841,
      "attract": 3842,
      "attractive": 3843,
      "chilling": 3844,
      "country": 3845,
      "zoomer": 3846,
      "busting": 3847,
      "involved": 3848,
      "smegma": 3849,
      "01100101": 3850,
      "absurd": 3851,
      "dafuqboom": 3852,
      "discussion": 3853,
      "lankybox": 3854,
      "joking": 3855,
      "billion": 3856,
      "nicke": 3857,
      "oraora": 3858,
      "murder": 3859,
      "phrases": 3860,
      "awesome": 3861,
      "credit": 3862,
      "coffin": 3863,
      "dictionary": 3864,
      "33": 3865,
      "420": 3866,
      "90s": 3867,
      "\\>": 3868,
      "aid": 3869,
      "bc": 3870,
      "btw": 3871,
      "cation": 3872,
      "cru": 3873,
      "five": 3874,
      "gamer": 3875,
      "iq": 3876,
      "jus": 3877,
      "loud": 3878,
      "lord": 3879,
      "pm": 3880,
      "prom": 3881,
      "ption": 3882,
      "pure": 3883,
      "rn": 3884,
      "ran": 3885,
      "sick": 3886,
      "tes": 3887,
      "zi": 3888,
      "zer": 3889,
      "zone": 3890,
      "🇺🇸": 3891,
      "🗼🗼": 3892,
      "😩😩": 3893,
      "😲😲": 3894,
      "🤬🤬😡": 3895,
      "🥶🥶": 3896,
      "att": 3897,
      "reminds": 3898,
      "towards": 3899,
      "ali": 3900,
      "stage": 3901,
      "states": 3902,
      "arm": 3903,
      "ried": 3904,
      "heck": 3905,
      "ades": 3906,
      "ticip": 3907,
      "utch": 3908,
      "coll": 3909,
      "skibdi": 3910,
      "cell": 3911,
      "pee": 3912,
      "raid": 3913,
      "ices": 3914,
      "across": 3915,
      "note": 3916,
      "somebody": 3917,
      "consequ": 3918,
      "gyatts": 3919,
      "⠀⠀⠀⠀⢀": 3920,
      "impro": 3921,
      "combin": 3922,
      "indi": 3923,
      "eventually": 3924,
      "spam": 3925,
      "special": 3926,
      "vibes": 3927,
      "news": 3928,
      "taxed": 3929,
      "phus": 3930,
      "phant": 3931,
      "buy": 3932,
      "ledge": 3933,
      "charm": 3934,
      "gameplay": 3935,
      "shows": 3936,
      "referenced": 3937,
      "turning": 3938,
      "personal": 3939,
      "truth": 3940,
      "eee": 3941,
      "embar": 3942,
      "famili": 3943,
      "putting": 3944,
      "breaking": 3945,
      "daddy": 3946,
      "gridding": 3947,
      "marine": 3948,
      "2016": 3949,
      "awful": 3950,
      "sible": 3951,
      "?!?": 3952,
      "decided": 3953,
      "hhhhhhhh": 3954,
      "uuuu": 3955,
      "💯💯💯💯": 3956,
      "hands": 3957,
      "freak": 3958,
      "considered": 3959,
      "communic": 3960,
      "hyper": 3961,
      "summon": 3962,
      "appear": 3963,
      "planet": 3964,
      "🚽🚽🚽🚽🚽🚽🚽🚽🚽🚽🚽🚽🚽🚽🚽🚽🚽🚽🚽🚽🚽🚽🚽🚽🚽🚽🚽🚽🚽🚽🚽🚽": 3965,
      "political": 3966,
      "associated": 3967,
      "cheese": 3968,
      "success": 3969,
      "okie": 3970,
      "introdu": 3971,
      "ridiculous": 3972,
      "ignore": 3973,
      "strawberry": 3974,
      "sisyphus": 3975,
      "):": 3976,
      "bour": 3977,
      "biz": 3978,
      "cg": 3979,
      "fault": 3980,
      "gain": 3981,
      "ied": 3982,
      "iled": 3983,
      "kn": 3984,
      "kis": 3985,
      "native": 3986,
      "oce": 3987,
      "pc": 3988,
      "ral": 3989,
      "rate": 3990,
      "rated": 3991,
      "slow": 3992,
      "ured": 3993,
      "wis": 3994,
      "wide": 3995,
      "yapp": 3996,
      "⠛⠋": 3997,
      "⬛⬛": 3998,
      "️love": 3999,
      "💪💪": 4000,
      "🟧🟧": 4001,
      "inc": 4002,
      "inner": 4003,
      "invent": 4004,
      "ato": 4005,
      "attem": 4006,
      "reli": 4007,
      "reach": 4008,
      "remix": 4009,
      "tomy": 4010,
      "town": 4011,
      "album": 4012,
      "bey": 4013,
      "sever": 4014,
      "chap": 4015,
      "chance": 4016,
      "rose": 4017,
      "maj": 4018,
      "ham": 4019,
      "adoption": 4020,
      "adays": 4021,
      "force": 4022,
      "forced": 4023,
      "coher": 4024,
      "lobo": 4025,
      "abo": 4026,
      "rizzard": 4027,
      "nowadays": 4028,
      "female": 4029,
      "suffer": 4030,
      "imum": 4031,
      "knowing": 4032,
      "meanwhile": 4033,
      "dip": 4034,
      "quick": 4035,
      "alphas": 4036,
      "produ": 4037,
      "chick": 4038,
      "share": 4039,
      "shaker": 4040,
      "shadow": 4041,
      "pibby": 4042,
      "childhood": 4043,
      "sheesh": 4044,
      "humans": 4045,
      "contact": 4046,
      "monster": 4047,
      "submarine": 4048,
      "wave": 4049,
      "woof": 4050,
      "mistake": 4051,
      "gress": 4052,
      "turbul": 4053,
      "appreci": 4054,
      "vocab": 4055,
      "literal": 4056,
      "actions": 4057,
      "gives": 4058,
      "given": 4059,
      "gged": 4060,
      "simple": 4061,
      "friendly": 4062,
      "aware": 4063,
      "mich": 4064,
      "wana": 4065,
      "haled": 4066,
      "scream": 4067,
      "views": 4068,
      "elephant": 4069,
      "evolving": 4070,
      "strong": 4071,
      "cycle": 4072,
      "lingo": 4073,
      "savesta": 4074,
      "hurt": 4075,
      "2023": 4076,
      "2024": 4077,
      "issues": 4078,
      "easy": 4079,
      "###": 4080,
      "shoot": 4081,
      ";;;;": 4082,
      "lady": 4083,
      "deleted": 4084,
      "control": 4085,
      "buddy": 4086,
      "defeated": 4087,
      "intelligent": 4088,
      "elementary": 4089,
      "comprehen": 4090,
      "jelq": 4091,
      "important": 4092,
      "cartoon": 4093,
      "individ": 4094,
      "familiar": 4095,
      "turbulence": 4096,
      ".**": 4097,
      "27": 4098,
      "4k": 4099,
      "bri": 4100,
      "cro": 4101,
      "ctor": 4102,
      "gas": 4103,
      "gic": 4104,
      "hang": 4105,
      "h30": 4106,
      "ials": 4107,
      "jer": 4108,
      "jump": 4109,
      "ku": 4110,
      "kum": 4111,
      "khaled": 4112,
      "mp": 4113,
      "ots": 4114,
      "pill": 4115,
      "push": 4116,
      "pussy": 4117,
      "rant": 4118,
      "slight": 4119,
      "ude": 4120,
      "vant": 4121,
      "xbox": 4122,
      "zo": 4123,
      "zak": 4124,
      "~~": 4125,
      "⣿⡇": 4126,
      "💦💦": 4127,
      "🥵🥵": 4128,
      "🦅🦅": 4129,
      "thou": 4130,
      "third": 4131,
      "anu": 4132,
      "ery": 4133,
      "reven": 4134,
      "requi": 4135,
      "ises": 4136,
      "isnt": 4137,
      "toy": 4138,
      "stere": 4139,
      "andy": 4140,
      "whe": 4141,
      "beth": 4142,
      "season": 4143,
      "hah": 4144,
      "rich": 4145,
      "living": 4146,
      "advice": 4147,
      "kicks": 4148,
      "wife": 4149,
      "cod": 4150,
      "skibi": 4151,
      "skibidied": 4152,
      "pect": 4153,
      "poppy": 4154,
      "nephe": 4155,
      "⣿⣿⡿": 4156,
      "ions": 4157,
      "bow": 4158,
      "conne": 4159,
      "tect": 4160,
      "immedi": 4161,
      "imply": 4162,
      "knowledge": 4163,
      "existen": 4164,
      "grass": 4165,
      "ments": 4166,
      "011": 4167,
      "direct": 4168,
      "quo": 4169,
      "⣿⣿⣿⣿⣿⣿⣿": 4170,
      "pls": 4171,
      "safe": 4172,
      "function": 4173,
      "josh": 4174,
      "plex": 4175,
      "prep": 4176,
      "present": 4177,
      "comedy": 4178,
      "doesnt": 4179,
      "disci": 4180,
      "phys": 4181,
      "luck": 4182,
      "playtime": 4183,
      "creep": 4184,
      "clat": 4185,
      "pron": 4186,
      "showing": 4187,
      "center": 4188,
      "desp": 4189,
      "!!!!!": 4190,
      "members": 4191,
      "💀💀💀💀💀": 4192,
      "glasses": 4193,
      "hella": 4194,
      "embra": 4195,
      "pointed": 4196,
      "bible": 4197,
      "skidi": 4198,
      "autotune": 4199,
      "trigger": 4200,
      "pair": 4201,
      "ckles": 4202,
      "situation": 4203,
      "club": 4204,
      "mogus": 4205,
      "problems": 4206,
      "cake": 4207,
      "treat": 4208,
      "vids": 4209,
      "breakfast": 4210,
      "horror": 4211,
      "purple": 4212,
      "growing": 4213,
      "running": 4214,
      "hurts": 4215,
      "sprint": 4216,
      "digital": 4217,
      "🤬😡🤬😡": 4218,
      "specif": 4219,
      "deserves": 4220,
      "trained": 4221,
      "potty": 4222,
      "signific": 4223,
      "typical": 4224,
      "50mg": 4225,
      "boring": 4226,
      "🇰🇿🇰🇿": 4227,
      "delete": 4228,
      "dark": 4229,
      "retard": 4230,
      "😔😔😔😔😔😔😔😔😔😔😔😔": 4231,
      "various": 4232,
      "furry": 4233,
      "insult": 4234,
      "nearly": 4235,
      "incredi": 4236,
      "booty": 4237,
      "golden": 4238,
      "costco": 4239,
      "neighbour": 4240,
      "bathroom": 4241,
      "professional": 4242,
      "appropriate": 4243,
      "attack": 4244,
      "macbeth": 4245,
      "femboy": 4246,
      "phantom": 4247,
      "fnf": 4248,
      "fighting": 4249,
      "natural": 4250,
      "glizzy": 4251,
      "source": 4252,
      "constantly": 4253,
      "compilation": 4254,
      "nickeh30": 4255,
      "embarrass": 4256,
      "chicken": 4257,
      "revenge": 4258,
      "stereo": 4259,
      "26": 4260,
      "95": 4261,
      "ahead": 4262,
      "bay": 4263,
      "coun": 4264,
      "cous": 4265,
      "cross": 4266,
      "eh": 4267,
      "equi": 4268,
      "fw": 4269,
      "fart": 4270,
      "fying": 4271,
      "gust": 4272,
      "gree": 4273,
      "hat": 4274,
      "hid": 4275,
      "hits": 4276,
      "ith": 4277,
      "ially": 4278,
      "jar": 4279,
      "lm": 4280,
      "lon": 4281,
      "las": 4282,
      "lone": 4283,
      "lts": 4284,
      "mir": 4285,
      "nin": 4286,
      "nature": 4287,
      "oc": 4288,
      "otic": 4289,
      "penc": 4290,
      "rit": 4291,
      "ration": 4292,
      "sar": 4293,
      "tong": 4294,
      "wit": 4295,
      "⠁⠀⠀": 4296,
      "💯💀": 4297,
      "😅😅": 4298,
      "🤓🤓": 4299,
      "🤪🤪": 4300,
      "ino": 4301,
      "inser": 4302,
      "rece": 4303,
      "replace": 4304,
      "met": 4305,
      "ald": 4306,
      "alala": 4307,
      "enge": 4308,
      "steven": 4309,
      "lest": 4310,
      "legen": 4311,
      "ased": 4312,
      "chine": 4313,
      "mama": 4314,
      "lier": 4315,
      "tier": 4316,
      "ute": 4317,
      "hip": 4318,
      "cells": 4319,
      "doin": 4320,
      "devol": 4321,
      "web": 4322,
      "raw": 4323,
      "race": 4324,
      "whats": 4325,
      "genz": 4326,
      "tury": 4327,
      "opium": 4328,
      "fellow": 4329,
      "atest": 4330,
      "amed": 4331,
      "ooo": 4332,
      "therap": 4333,
      "commen": 4334,
      "complex": 4335,
      "ulu": 4336,
      "ultra": 4337,
      "grab": 4338,
      "pper": 4339,
      "urban": 4340,
      "oldest": 4341,
      "ils": 4342,
      "thanos": 4343,
      "span": 4344,
      "otherwise": 4345,
      "taxing": 4346,
      "shared": 4347,
      "talked": 4348,
      "ished": 4349,
      "nike": 4350,
      "hero": 4351,
      "century": 4352,
      "greatest": 4353,
      "personality": 4354,
      "basic": 4355,
      "comput": 4356,
      "yolo": 4357,
      "gia": 4358,
      "keeps": 4359,
      "popularized": 4360,
      "🤣🤣🤣🤣": 4361,
      "party": 4362,
      "mindset": 4363,
      "park": 4364,
      "six": 4365,
      "ankha": 4366,
      "dumbass": 4367,
      "dune": 4368,
      "sentences": 4369,
      "sonic": 4370,
      "cars": 4371,
      "blame": 4372,
      "crank": 4373,
      "deadass": 4374,
      "bussing": 4375,
      "jective": 4376,
      "1337": 4377,
      "fallen": 4378,
      "logical": 4379,
      "doubt": 4380,
      "dress": 4381,
      "draw": 4382,
      "shorten": 4383,
      "burn": 4384,
      "books": 4385,
      "legal": 4386,
      "womp": 4387,
      "🤯🤯🤯🤯": 4388,
      "saul": 4389,
      "zoomers": 4390,
      "fellas": 4391,
      "involving": 4392,
      "behaviour": 4393,
      "certainly": 4394,
      "scope": 4395,
      "huge": 4396,
      "floor": 4397,
      "complaining": 4398,
      "streets": 4399,
      "abortion": 4400,
      "quirked": 4401,
      "challenge": 4402,
      "obsessed": 4403,
      "fictional": 4404,
      "destroy": 4405,
      "curious": 4406,
      "cg5": 4407,
      "major": 4408,
      "lobotomy": 4409,
      "above": 4410,
      "michig": 4411,
      "kumalala": 4412,
      "whether": 4413,
      "skidibi": 4414,
      "significant": 4415,
      "!”": 4416,
      "05am": 4417,
      "21": 4418,
      "45am": 4419,
      "80": 4420,
      "^(": 4421,
      "ack": 4422,
      "aver": 4423,
      "avo": 4424,
      "bb": 4425,
      "bate": 4426,
      "bought": 4427,
      "brand": 4428,
      "bbles": 4429,
      "cam": 4430,
      "dank": 4431,
      "equ": 4432,
      "etern": 4433,
      "fs": 4434,
      "flow": 4435,
      "gd": 4436,
      "gross": 4437,
      "h3": 4438,
      "hun": 4439,
      "hated": 4440,
      "hating": 4441,
      "ild": 4442,
      "ians": 4443,
      "knu": 4444,
      "pin": 4445,
      "psy": 4446,
      "plot": 4447,
      "pants": 4448,
      "tin": 4449,
      "tend": 4450,
      "vity": 4451,
      "waf": 4452,
      "⣀⣠": 4453,
      "️‍": 4454,
      "🗿🍷🍷": 4455,
      "😁😁": 4456,
      "🙏🏻": 4457,
      "thus": 4458,
      "inv": 4459,
      "inno": 4460,
      "anon": 4461,
      "ond": 4462,
      "return": 4463,
      "stfu": 4464,
      "stur": 4465,
      "stem": 4466,
      "identi": 4467,
      "arre": 4468,
      "arri": 4469,
      "ards": 4470,
      "ched": 4471,
      "choo": 4472,
      "keanu": 4473,
      "lim": 4474,
      "ligma": 4475,
      "llz": 4476,
      "unfunny": 4477,
      "cope": 4478,
      "geon": 4479,
      "lots": 4480,
      "mobi": 4481,
      "poe": 4482,
      "neither": 4483,
      "wash": 4484,
      "activ": 4485,
      "gyats": 4486,
      "somewhere": 4487,
      "cancer": 4488,
      "fears": 4489,
      "000": 4490,
      "00am": 4491,
      "tea": 4492,
      "anywhere": 4493,
      "comfort": 4494,
      "angate": 4495,
      "lah": 4496,
      "dayum": 4497,
      "spent": 4498,
      "spread": 4499,
      "spider": 4500,
      "aster": 4501,
      "endless": 4502,
      "cies": 4503,
      "cious": 4504,
      "backwards": 4505,
      "fao": 4506,
      "stands": 4507,
      "shame": 4508,
      "afraid": 4509,
      "offensive": 4510,
      "susmogus": 4511,
      "stor": 4512,
      "humour": 4513,
      "loves": 4514,
      "trad": 4515,
      "weren": 4516,
      "badger": 4517,
      "creature": 4518,
      "prin": 4519,
      "woke": 4520,
      "tics": 4521,
      "missed": 4522,
      "mission": 4523,
      "harder": 4524,
      "lotz": 4525,
      "encing": 4526,
      "calls": 4527,
      "calm": 4528,
      "blow": 4529,
      "learning": 4530,
      "popularity": 4531,
      "sky": 4532,
      "setting": 4533,
      "2012": 4534,
      "2018": 4535,
      "particip": 4536,
      "ugand": 4537,
      "wholesome": 4538,
      "path": 4539,
      "pathetic": 4540,
      "dunno": 4541,
      "carti": 4542,
      "dropped": 4543,
      "chatgpt": 4544,
      "😱😱😱": 4545,
      "reflect": 4546,
      "decades": 4547,
      "😭😭😭": 4548,
      "!\".": 4549,
      "milking": 4550,
      "cameras": 4551,
      "pressed": 4552,
      "millenials": 4553,
      "balllz": 4554,
      "added": 4555,
      "addic": 4556,
      "jack": 4557,
      "weeks": 4558,
      "elect": 4559,
      "entirely": 4560,
      "horrible": 4561,
      "tttt": 4562,
      "chosen": 4563,
      "ytp": 4564,
      "caseoh": 4565,
      "savevideo": 4566,
      "😎😎😎😎": 4567,
      "iiii": 4568,
      "rrrr": 4569,
      "cooking": 4570,
      "changing": 4571,
      "motherfucking": 4572,
      "faces": 4573,
      "america": 4574,
      "trolling": 4575,
      "claim": 4576,
      "deserve": 4577,
      "sunglasses": 4578,
      "heaven": 4579,
      "heavy": 4580,
      "resist": 4581,
      "bombo": 4582,
      "ultimate": 4583,
      "continues": 4584,
      "cabbage": 4585,
      "release": 4586,
      "relevant": 4587,
      "teenager": 4588,
      "penis": 4589,
      "reminder": 4590,
      "salad": 4591,
      "perfectly": 4592,
      "getoutofmyheadgetoutofmyheadgetoutofmyheadgetoutofmyheadgetoutofmyheadgetoutofmyheadgetoutofmyheadgetoutofmyhead": 4593,
      "damudamudamudamu": 4594,
      "develop": 4595,
      "official": 4596,
      "interesting": 4597,
      "soulja": 4598,
      "sight": 4599,
      "extremely": 4600,
      "student": 4601,
      "entertaining": 4602,
      "kobe": 4603,
      "nostalgia": 4604,
      "aoao": 4605,
      "folk": 4606,
      "adderall": 4607,
      "surprised": 4608,
      "confirmed": 4609,
      "relationship": 4610,
      "fashi": 4611,
      "recogni": 4612,
      "lyrics": 4613,
      "consequences": 4614,
      "bizarre": 4615,
      "oceangate": 4616,
      "yapping": 4617,
      "attempt": 4618,
      "coherent": 4619,
      "appreciate": 4620,
      "comprehensible": 4621,
      "zakh": 4622,
      "immediately": 4623,
      "discipline": 4624,
      "pronoun": 4625,
      "specifically": 4626,
      "pencil": 4627,
      "tongue": 4628,
      "insert": 4629,
      "computer": 4630,
      "!🗿": 4631,
      "'(": 4632,
      "70": 4633,
      ":'(": 4634,
      "aust": 4635,
      "bout": 4636,
      "bir": 4637,
      "bac": 4638,
      "ctu": 4639,
      "cture": 4640,
      "dai": 4641,
      "dash": 4642,
      "eper": 4643,
      "egg": 4644,
      "fy": 4645,
      "fand": 4646,
      "fish": 4647,
      "ggest": 4648,
      "hutch": 4649,
      "ké": 4650,
      "lv": 4651,
      "lam": 4652,
      "nit": 4653,
      "nig": 4654,
      "nast": 4655,
      "npc": 4656,
      "rs": 4657,
      "rof": 4658,
      "rout": 4659,
      "sn": 4660,
      "schi": 4661,
      "tro": 4662,
      "ugh": 4663,
      "⣾⣿": 4664,
      "⣾⣿⣿⣿⣿⣿": 4665,
      "⣿⡿": 4666,
      "🔞🔞": 4667,
      "🤤🤤": 4668,
      "thre": 4669,
      "thous": 4670,
      "inst": 4671,
      "incl": 4672,
      "intention": 4673,
      "inform": 4674,
      "inappropriate": 4675,
      "thes": 4676,
      "rek": 4677,
      "ison": 4678,
      "meat": 4679,
      "itish": 4680,
      "tool": 4681,
      "todd": 4682,
      "almon": 4683,
      "lemon": 4684,
      "ander": 4685,
      "idence": 4686,
      "asy": 4687,
      "aspect": 4688,
      "nope": 4689,
      "notice": 4690,
      "ark": 4691,
      "whis": 4692,
      "beating": 4693,
      "lying": 4694,
      "chain": 4695,
      "machine": 4696,
      "haik": 4697,
      "rip": 4698,
      "riz": 4699,
      "adop": 4700,
      "goku": 4701,
      "tial": 4702,
      "unk": 4703,
      "cos": 4704,
      "code": 4705,
      "copi": 4706,
      "covid": 4707,
      "loved": 4708,
      "skill": 4709,
      "hill": 4710,
      "mode": 4711,
      "moved": 4712,
      "dem": 4713,
      "deli": 4714,
      "pog": 4715,
      "poké": 4716,
      "necess": 4717,
      "⣿⣿⣧": 4718,
      "wasnt": 4719,
      "ican": 4720,
      "board": 4721,
      "uming": 4722,
      "yeeee": 4723,
      "canad": 4724,
      "suggest": 4725,
      "erson": 4726,
      "conven": 4727,
      "congr": 4728,
      "concept": 4729,
      "amen": 4730,
      "excl": 4731,
      "law": 4732,
      "labe": 4733,
      "shitposts": 4734,
      "assy": 4735,
      "derived": 4736,
      "agre": 4737,
      "ague": 4738,
      "redpilled": 4739,
      "⣿⣿⣿⣿⣷": 4740,
      "plat": 4741,
      "plug": 4742,
      "braindead": 4743,
      "spa": 4744,
      "slangs": 4745,
      "background": 4746,
      "vibe": 4747,
      "discover": 4748,
      "aka": 4749,
      "cringy": 4750,
      "phy": 4751,
      "build": 4752,
      "fries": 4753,
      "schedu": 4754,
      "needed": 4755,
      "commenting": 4756,
      "final": 4757,
      "ulary": 4758,
      "creating": 4759,
      "⠀⠀⠀⠀⠀⠀⠀⠀⠀⠀": 4760,
      "⠀⠀⠀⠀⠀⠀⠀⠀⠀⠀⠀": 4761,
      "1000": 4762,
      "green": 4763,
      "crack": 4764,
      "harass": 4765,
      "persona": 4766,
      "voted": 4767,
      "fired": 4768,
      "smh": 4769,
      "hello": 4770,
      "surreal": 4771,
      "bio": 4772,
      "breast": 4773,
      "accent": 4774,
      "color": 4775,
      "sounded": 4776,
      "2000": 4777,
      "01000101": 4778,
      "crash": 4779,
      "sitting": 4780,
      "decent": 4781,
      "british": 4782,
      "wolves": 4783,
      "nerd": 4784,
      "mommy": 4785,
      "rolling": 4786,
      "helps": 4787,
      "morbin": 4788,
      "yley": 4789,
      "kazakh": 4790,
      "horri": 4791,
      "moderator": 4792,
      "window": 4793,
      "joyfully": 4794,
      "bhub": 4795,
      "burger": 4796,
      "wearing": 4797,
      "spot": 4798,
      "valent": 4799,
      "delulu": 4800,
      "repeated": 4801,
      "flip": 4802,
      "filled": 4803,
      "gradu": 4804,
      "violence": 4805,
      "ronic": 4806,
      "🙏🙏🙏": 4807,
      "🔥🔥🔥🔥💯💯💯💯": 4808,
      "currently": 4809,
      "easier": 4810,
      "beginning": 4811,
      "universe": 4812,
      "grammar": 4813,
      "controver": 4814,
      "!!!!!!!!!!": 4815,
      "wondering": 4816,
      "⣿⣿⣿⣿⣿⣿⣿⣿⣿⣿⣿⣿⣿⣿": 4817,
      "texts": 4818,
      "officially": 4819,
      "street": 4820,
      "wood": 4821,
      "health": 4822,
      "doomed": 4823,
      "students": 4824,
      "spirit": 4825,
      "position": 4826,
      "elsag": 4827,
      "particularly": 4828,
      "impressive": 4829,
      "critical": 4830,
      "apolog": 4831,
      "kanye": 4832,
      "slowly": 4833,
      "invented": 4834,
      "beyond": 4835,
      "chapter": 4836,
      "vocabulary": 4837,
      "slightly": 4838,
      "nephew": 4839,
      "incredible": 4840,
      "lmfao": 4841,
      "legend": 4842,
      "average": 4843,
      "knuckles": 4844,
      "anonym": 4845,
      "mobile": 4846,
      "fashion": 4847,
      "daily": 4848,
      "hutcherson": 4849,
      "lvl": 4850,
      "thousand": 4851,
      "schedule": 4852,
      "kazakhstan": 4853,
      "-\"": 4854,
      "35": 4855,
      "36": 4856,
      "\\\\": 4857,
      "_o": 4858,
      "ape": 4859,
      "bic": 4860,
      "bang": 4861,
      "cup": 4862,
      "ew": 4863,
      "fna": 4864,
      "four": 4865,
      "gat": 4866,
      "gawk": 4867,
      "gassy": 4868,
      "hates": 4869,
      "ius": 4870,
      "jj": 4871,
      "jonk": 4872,
      "lay": 4873,
      "mum": 4874,
      "national": 4875,
      "o_o": 4876,
      "pes": 4877,
      "rd": 4878,
      "rt": 4879,
      "rare": 4880,
      "range": 4881,
      "sand": 4882,
      "sci": 4883,
      "tent": 4884,
      "ull": 4885,
      "wind": 4886,
      "yall": 4887,
      "⠀⣿⣿⣿⣿": 4888,
      "⠛⠉⠉": 4889,
      "⠿⠿": 4890,
      "⡀⠀⠀⠀⠀⠀⠀⠀⠀⠀⠀⠀⠀⠀⠀⠀⠀": 4891,
      "⡇⠀⠀⠀⠀⠀⠀⠀⠀⠀⠀⠀⠀⠀⠀⠀⠀": 4892,
      "⢀⣼": 4893,
      "⣧⠈": 4894,
      "🍕🍕": 4895,
      "🍷🗿": 4896,
      "🗣🗣": 4897,
      "🗿‼": 4898,
      "🤣🍑🍑🍑🍑": 4899,
      "iness": 4900,
      "instant": 4901,
      "meta": 4902,
      "although": 4903,
      "ender": 4904,
      "stim": 4905,
      "ories": 4906,
      "lem": 4907,
      "league": 4908,
      "leyley": 4909,
      "aside": 4910,
      "assume": 4911,
      "nowhere": 4912,
      "argu": 4913,
      "road": 4914,
      "haps": 4915,
      "goat": 4916,
      "govern": 4917,
      "ign": 4918,
      "loop": 4919,
      "ussi": 4920,
      "skibbid": 4921,
      "mocking": 4922,
      "model": 4923,
      "mosqu": 4924,
      "area": 4925,
      "doctor": 4926,
      "shm": 4927,
      "pet": 4928,
      "pebbles": 4929,
      "pookie": 4930,
      "icon": 4931,
      "letting": 4932,
      "acular": 4933,
      "umin": 4934,
      "yester": 4935,
      "genius": 4936,
      "tub": 4937,
      "tag": 4938,
      "feat": 4939,
      "condition": 4940,
      "imma": 4941,
      "compe": 4942,
      "common": 4943,
      "lawg": 4944,
      "ult": 4945,
      "whenever": 4946,
      "indust": 4947,
      "diag": 4948,
      "slur": 4949,
      "bros": 4950,
      "brothers": 4951,
      "protect": 4952,
      "plus": 4953,
      "pluh": 4954,
      "plates": 4955,
      "everyday": 4956,
      "perhaps": 4957,
      "seemed": 4958,
      "funkin": 4959,
      "spy": 4960,
      "spit": 4961,
      "ights": 4962,
      "prefer": 4963,
      "berries": 4964,
      "realized": 4965,
      "blew": 4966,
      "serve": 4967,
      "server": 4968,
      "focus": 4969,
      "tale": 4970,
      "talks": 4971,
      "110": 4972,
      "charlie": 4973,
      "frfr": 4974,
      "inted": 4975,
      "create": 4976,
      "⠀⠀⠀⠀⠀⠀⠀⠀⠀⠀⠀⠀⠀⠀⠀": 4977,
      "woah": 4978,
      "schoolers": 4979,
      "corner": 4980,
      "missing": 4981,
      "cracked": 4982,
      "kinder": 4983,
      "thoughts": 4984,
      "pretending": 4985,
      "nsfw": 4986,
      "gian": 4987,
      "bie": 4988,
      "skull": 4989,
      "simp": 4990,
      "gooner": 4991,
      "earlier": 4992,
      "parod": 4993,
      "🗿🗿🗿": 4994,
      "⣿⣿⣿⣿⣿⣿⣿⣿⡿": 4995,
      "originated": 4996,
      "teddie": 4997,
      "paste": 4998,
      "ountain": 4999,
      "01001111": 5000,
      "?!?!": 5001,
      "cares": 5002,
      "mrbeast": 5003,
      "mortal": 5004,
      "passed": 5005,
      "confusing": 5006,
      "handle": 5007,
      "imagin": 5008,
      "freaking": 5009,
      "skibidis": 5010,
      "mmm": 5011,
      "??????": 5012,
      "experienced": 5013,
      "clip": 5014,
      "sadly": 5015,
      "annoy": 5016,
      "follows": 5017,
      "legit": 5018,
      "01010100": 5019,
      "profile": 5020,
      "spoken": 5021,
      "⣀⣀⣀⣀": 5022,
      "repeat": 5023,
      "translation": 5024,
      "appears": 5025,
      "film": 5026,
      "💀💀💀💀💀💀💀💀💀💀": 5027,
      "⠀⠀⠀⠀⠀⠀⢀": 5028,
      "training": 5029,
      "bomb": 5030,
      "written": 5031,
      "shooting": 5032,
      "____": 5033,
      "smell": 5034,
      "potato": 5035,
      "channels": 5036,
      "🍔🍔🍔": 5037,
      "📸📸📸📸": 5038,
      "excuse": 5039,
      "properly": 5040,
      "patrick": 5041,
      "transform": 5042,
      "further": 5043,
      "👟👟👟👟": 5044,
      "bench": 5045,
      "frame": 5046,
      "exploded": 5047,
      "lines": 5048,
      "vernacular": 5049,
      "🍑🍑🍑🍑🍑🍑🍑": 5050,
      "snap": 5051,
      "😬😬😬": 5052,
      "audio": 5053,
      "drugs": 5054,
      "execut": 5055,
      "judge": 5056,
      "aiden": 5057,
      "communication": 5058,
      "quote": 5059,
      "cousin": 5060,
      "equivalent": 5061,
      "shortened": 5062,
      "michigan": 5063,
      "bateman": 5064,
      "🗿🍷🍷🍷": 5065,
      "🙏🏻🙏🏻": 5066,
      "sturdy": 5067,
      "bomboclat": 5068,
      "bacon": 5069,
      "fandom": 5070,
      "rofl": 5071,
      "information": 5072,
      "almonds": 5073,
      "whisper": 5074,
      "elsagate": 5075,
      "fnaf": 5076,
      "government": 5077,
      "mosquito": 5078,
      "!🤑": 5079,
      ".😠": 5080,
      "06": 5081,
      "07": 5082,
      "22": 5083,
      "3d": 5084,
      "46": 5085,
      "7th": 5086,
      "?)": 5087,
      "ax": 5088,
      "cit": 5089,
      "cine": 5090,
      "clevel": 5091,
      "cities": 5092,
      "cket": 5093,
      "dab": 5094,
      "dic": 5095,
      "dated": 5096,
      "ego": 5097,
      "east": 5098,
      "fc": 5099,
      "fant": 5100,
      "gf": 5101,
      "gal": 5102,
      "gam": 5103,
      "gif": 5104,
      "gim": 5105,
      "hing": 5106,
      "hide": 5107,
      "izz": 5108,
      "jaw": 5109,
      "lk": 5110,
      "lou": 5111,
      "lame": 5112,
      "nd": 5113,
      "nation": 5114,
      "oil": 5115,
      "pul": 5116,
      "page": 5117,
      "sma": 5118,
      "snow": 5119,
      "sses": 5120,
      "sane": 5121,
      "twe": 5122,
      "task": 5123,
      "uals": 5124,
      "ww": 5125,
      "xx": 5126,
      "zop": 5127,
      "zom": 5128,
      "☠☠": 5129,
      "💀🍷🍷": 5130,
      "😳😳": 5131,
      "🫱🫱": 5132,
      "tha": 5133,
      "thr": 5134,
      "thor": 5135,
      "thic": 5136,
      "ina": 5137,
      "incomprehensible": 5138,
      "anti": 5139,
      "refu": 5140,
      "reverse": 5141,
      "research": 5142,
      "inger": 5143,
      "meg": 5144,
      "iter": 5145,
      "alous": 5146,
      "ense": 5147,
      "stit": 5148,
      "lebr": 5149,
      "youth": 5150,
      "arr": 5151,
      "aries": 5152,
      "chop": 5153,
      "chase": 5154,
      "roast": 5155,
      "math": 5156,
      "sored": 5157,
      "lives": 5158,
      "livy": 5159,
      "tip": 5160,
      "wipe": 5161,
      "forms": 5162,
      "format": 5163,
      "forward": 5164,
      "ignor": 5165,
      "cow": 5166,
      "costu": 5167,
      "loss": 5168,
      "local": 5169,
      "usage": 5170,
      "motion": 5171,
      "idiot": 5172,
      "idiots": 5173,
      "doll": 5174,
      "shrek": 5175,
      "zzle": 5176,
      "zzzz": 5177,
      "deta": 5178,
      "device": 5179,
      "weir": 5180,
      "weap": 5181,
      "popo": 5182,
      "poten": 5183,
      "raise": 5184,
      "aaaaaa": 5185,
      "buttho": 5186,
      "tered": 5187,
      "termin": 5188,
      "acce": 5189,
      "acity": 5190,
      "update": 5191,
      "bob": 5192,
      "boat": 5193,
      "bother": 5194,
      "umpy": 5195,
      "ify": 5196,
      "hop": 5197,
      "tured": 5198,
      "taste": 5199,
      "worm": 5200,
      "oppos": 5201,
      "kidding": 5202,
      "conce": 5203,
      "roman": 5204,
      "ently": 5205,
      "anyways": 5206,
      "comics": 5207,
      "exten": 5208,
      "exists": 5209,
      "extent": 5210,
      "lawn": 5211,
      "gru": 5212,
      "mentally": 5213,
      "assist": 5214,
      "urate": 5215,
      "odd": 5216,
      "hasn": 5217,
      "dire": 5218,
      "quit": 5219,
      "illumin": 5220,
      "aging": 5221,
      "makeits": 5222,
      "prodig": 5223,
      "prolly": 5224,
      "progress": 5225,
      "everybody": 5226,
      "jojo": 5227,
      "astro": 5228,
      "previ": 5229,
      "spelled": 5230,
      "itement": 5231,
      "tense": 5232,
      "bert": 5233,
      "chie": 5234,
      "newer": 5235,
      "disap": 5236,
      "distor": 5237,
      "lucky": 5238,
      "store": 5239,
      "110111": 5240,
      "picked": 5241,
      "overall": 5242,
      "plays": 5243,
      "contri": 5244,
      "crew": 5245,
      "reeves": 5246,
      "1001": 5247,
      "system": 5248,
      "mates": 5249,
      "schools": 5250,
      "population": 5251,
      "ization": 5252,
      "surely": 5253,
      "referencing": 5254,
      "hahaha": 5255,
      "!!!!!!": 5256,
      "personally": 5257,
      "votes": 5258,
      "fied": 5259,
      "smile": 5260,
      "names": 5261,
      "2020": 5262,
      "warm": 5263,
      "wars": 5264,
      "warning": 5265,
      "surgeon": 5266,
      "tf2": 5267,
      "laughter": 5268,
      "accurate": 5269,
      "mario": 5270,
      "stress": 5271,
      "2013": 5272,
      "ballinger": 5273,
      "classic": 5274,
      "maxx": 5275,
      "maximum": 5276,
      "2000s": 5277,
      "screens": 5278,
      "screamed": 5279,
      "decide": 5280,
      "randomly": 5281,
      "jealous": 5282,
      "emoji": 5283,
      "shift": 5284,
      "😭😭😭😭": 5285,
      "torture": 5286,
      "view": 5287,
      "morrow": 5288,
      "morning": 5289,
      "solid": 5290,
      "passant": 5291,
      "confidence": 5292,
      "balan": 5293,
      "logic": 5294,
      "superior": 5295,
      "jama": 5296,
      "douche": 5297,
      "fresh": 5298,
      "animated": 5299,
      "chair": 5300,
      "considering": 5301,
      "colleen": 5302,
      "brings": 5303,
      "bullied": 5304,
      "latest": 5305,
      "punk": 5306,
      "tested": 5307,
      "nuke": 5308,
      "digestion": 5309,
      "figured": 5310,
      "011100": 5311,
      "facts": 5312,
      "graders": 5313,
      "😂😂😂🤣🤣🤣": 5314,
      "fingers": 5315,
      "flexing": 5316,
      "🤣🤣🤣‼": 5317,
      "streamers": 5318,
      "guns": 5319,
      "types": 5320,
      "typically": 5321,
      "victori": 5322,
      "excitement": 5323,
      "massive": 5324,
      "fatherless": 5325,
      "president": 5326,
      "techno": 5327,
      "throwing": 5328,
      "defeat": 5329,
      "smoke": 5330,
      "chuckle": 5331,
      "username": 5332,
      "entertainment": 5333,
      "════": 5334,
      "fetish": 5335,
      "circle": 5336,
      "prac": 5337,
      "yyyyyyyyyyyyyyyy": 5338,
      "1984": 5339,
      "places": 5340,
      "scatman": 5341,
      "result": 5342,
      "😂🤣😂🤣😂🤣": 5343,
      "multiple": 5344,
      "photo": 5345,
      "zero": 5346,
      "combination": 5347,
      "relig": 5348,
      "existence": 5349,
      "prepare": 5350,
      "physical": 5351,
      "embarrassing": 5352,
      "eternity": 5353,
      "innocent": 5354,
      "arrive": 5355,
      "ugandan": 5356,
      "development": 5357,
      "nigga": 5358,
      "threat": 5359,
      "agreed": 5360,
      "spawn": 5361,
      "graduated": 5362,
      "anonymized": 5363,
      "jonkler": 5364,
      "skibbidy": 5365,
      "shmlawg": 5366,
      "diagno": 5367,
      "gianni": 5368,
      "??????!!!!!!!!!!": 5369,
      "whispered": 5370,
      "cleveland": 5371,
      "costume": 5372,
      "weapon": 5373,
      "opposite": 5374,
      "prodigy": 5375,
      "disappointed": 5376,
      ",”": 5377,
      "45": 5378,
      "6th": 5379,
      "600": 5380,
      "75": 5381,
      "86": 5382,
      "><": 5383,
      "aes": 5384,
      "bound": 5385,
      "cere": 5386,
      "cist": 5387,
      "dare": 5388,
      "eu": 5389,
      "fren": 5390,
      "gla": 5391,
      "hus": 5392,
      "hall": 5393,
      "iest": 5394,
      "jum": 5395,
      "jee": 5396,
      "kno": 5397,
      "mig": 5398,
      "mountain": 5399,
      "pal": 5400,
      "pts": 5401,
      "rat": 5402,
      "russi": 5403,
      "slic": 5404,
      "uj": 5405,
      "uk": 5406,
      "vac": 5407,
      "viron": 5408,
      "yi": 5409,
      "yu": 5410,
      "yup": 5411,
      "yuu": 5412,
      "⠀⠈": 5413,
      "⡇⠀": 5414,
      "⣶⣶": 5415,
      "⣿⣷": 5416,
      "😈😈": 5417,
      "ince": 5418,
      "ination": 5419,
      "inhal": 5420,
      "insta": 5421,
      "inconven": 5422,
      "ana": 5423,
      "erable": 5424,
      "atable": 5425,
      "attit": 5426,
      "onom": 5427,
      "recor": 5428,
      "revol": 5429,
      "remain": 5430,
      "recru": 5431,
      "recommen": 5432,
      "isis": 5433,
      "isms": 5434,
      "islam": 5435,
      "meth": 5436,
      "iti": 5437,
      "tomorrow": 5438,
      "alot": 5439,
      "alarm": 5440,
      "eno": 5441,
      "environ": 5442,
      "stren": 5443,
      "asure": 5444,
      "assho": 5445,
      "notic": 5446,
      "noises": 5447,
      "army": 5448,
      "whack": 5449,
      "belong": 5450,
      "sem": 5451,
      "seat": 5452,
      "secur": 5453,
      "chor": 5454,
      "cham": 5455,
      "mare": 5456,
      "sold": 5457,
      "liet": 5458,
      "ado": 5459,
      "adap": 5460,
      "admin": 5461,
      "ckling": 5462,
      "ties": 5463,
      "tiest": 5464,
      "unc": 5465,
      "uncool": 5466,
      "foraged": 5467,
      "coo": 5468,
      "cop": 5469,
      "colog": 5470,
      "loving": 5471,
      "usa": 5472,
      "mogged": 5473,
      "vert": 5474,
      "arest": 5475,
      "dore": 5476,
      "doom": 5477,
      "sharing": 5478,
      "eree": 5479,
      "depress": 5480,
      "weed": 5481,
      "wester": 5482,
      "poll": 5483,
      "ney": 5484,
      "rizzes": 5485,
      "icy": 5486,
      "letters": 5487,
      "terri": 5488,
      "acron": 5489,
      "somewhat": 5490,
      "ified": 5491,
      "hol": 5492,
      "genre": 5493,
      "gence": 5494,
      "gender": 5495,
      "ohioans": 5496,
      "ophi": 5497,
      "opport": 5498,
      "aul": 5499,
      "suit": 5500,
      "donald": 5501,
      "consume": 5502,
      "contexts": 5503,
      "0001": 5504,
      "tear": 5505,
      "tears": 5506,
      "excess": 5507,
      "fucker": 5508,
      "grumpy": 5509,
      "indic": 5510,
      "ppity": 5511,
      "assass": 5512,
      "omar": 5513,
      "ilt": 5514,
      "hash": 5515,
      "dia": 5516,
      "dial": 5517,
      "dimen": 5518,
      "gotten": 5519,
      "ager": 5520,
      "brooo": 5521,
      "rude": 5522,
      "perce": 5523,
      "manage": 5524,
      "joe": 5525,
      "spi": 5526,
      "spreading": 5527,
      "spelling": 5528,
      "species": 5529,
      "nair": 5530,
      "chief": 5531,
      "scen": 5532,
      "disgust": 5533,
      "offended": 5534,
      "bub": 5535,
      "built": 5536,
      "dudes": 5537,
      "111": 5538,
      "overly": 5539,
      "childish": 5540,
      "nia": 5541,
      "nie": 5542,
      "schoo": 5543,
      "subject": 5544,
      "subscri": 5545,
      "waxing": 5546,
      "youngpeople": 5547,
      "shakes": 5548,
      "perspe": 5549,
      "desi": 5550,
      "fixing": 5551,
      "travel": 5552,
      "compared": 5553,
      "keeping": 5554,
      "survi": 5555,
      "breath": 5556,
      "insan": 5557,
      "triple": 5558,
      "paper": 5559,
      "diffic": 5560,
      "sial": 5561,
      "colate": 5562,
      "mie": 5563,
      "micha": 5564,
      "carry": 5565,
      "blind": 5566,
      "crush": 5567,
      "waiting": 5568,
      "crime": 5569,
      "athread": 5570,
      "twist": 5571,
      "referee": 5572,
      "brut": 5573,
      "teenage": 5574,
      "batman": 5575,
      "facebook": 5576,
      "reasons": 5577,
      "tors": 5578,
      "midwest": 5579,
      "trendy": 5580,
      "relate": 5581,
      "cameramen": 5582,
      "mogging": 5583,
      "💯💯💯": 5584,
      "statement": 5585,
      "belief": 5586,
      "images": 5587,
      "falls": 5588,
      "cape": 5589,
      "frequ": 5590,
      "horse": 5591,
      "chocolate": 5592,
      "animations": 5593,
      "button": 5594,
      "evolved": 5595,
      "dragon": 5596,
      "pedophi": 5597,
      "grinding": 5598,
      "explained": 5599,
      "description": 5600,
      "communities": 5601,
      "groo": 5602,
      "braz": 5603,
      "virus": 5604,
      "profit": 5605,
      "vision": 5606,
      "value": 5607,
      "remote": 5608,
      "delusion": 5609,
      "repetit": 5610,
      "south": 5611,
      "mainstream": 5612,
      "999": 5613,
      "kino": 5614,
      "clap": 5615,
      "easily": 5616,
      "fleek": 5617,
      "mfs": 5618,
      "leaders": 5619,
      "options": 5620,
      "biden": 5621,
      "grandpa": 5622,
      "catchy": 5623,
      "slip": 5624,
      "structure": 5625,
      "panel": 5626,
      "existed": 5627,
      "minute": 5628,
      "include": 5629,
      "includes": 5630,
      "limited": 5631,
      "flushing": 5632,
      "education": 5633,
      "healthy": 5634,
      "\"\"\"\"": 5635,
      "🤬🤬🤬🤬": 5636,
      "dominant": 5637,
      "nostalgic": 5638,
      "quirky": 5639,
      "adderal": 5640,
      "strips": 5641,
      "placed": 5642,
      "❓❓❓❓": 5643,
      "💩💩💩💩": 5644,
      "ayayayay": 5645,
      "micro": 5646,
      "sweet": 5647,
      "waste": 5648,
      "discussions": 5649,
      "introduced": 5650,
      "severe": 5651,
      "jumpscare": 5652,
      "implying": 5653,
      "0110100": 5654,
      "creepy": 5655,
      "embrace": 5656,
      "retarded": 5657,
      "stereotype": 5658,
      "counter": 5659,
      "greek": 5660,
      "sarcas": 5661,
      "therapist": 5662,
      "spanish": 5663,
      "avoid": 5664,
      "waffle": 5665,
      "tradition": 5666,
      "recognize": 5667,
      "austral": 5668,
      "route": 5669,
      "incline": 5670,
      "haiku": 5671,
      "pokénut": 5672,
      "horribly": 5673,
      "controversial": 5674,
      "legendary": 5675,
      "gimme": 5676,
      "pulled": 5677,
      "megathread": 5678,
      "butthole": 5679,
      "previous": 5680,
      "contribut": 5681,
      "crewmate": 5682,
      "balanced": 5683,
      "victorian": 5684,
      "😂🤣😂🤣😂🤣😂😂😂🤣🤣🤣": 5685,
      "aesthetic": 5686,
      "slicers": 5687,
      "instagram": 5688,
      "inconveni": 5689,
      "streng": 5690,
      "depression": 5691,
      "opportun": 5692,
      "dimension": 5693,
      "michael": 5694,
      "\"?": 5695,
      "*\"": 5696,
      "->": 5697,
      "34": 5698,
      "38": 5699,
      "54": 5700,
      "59": 5701,
      "77": 5702,
      "80s": 5703,
      "aim": 5704,
      "achie": 5705,
      "bun": 5706,
      "bite": 5707,
      "bones": 5708,
      "bility": 5709,
      "cc": 5710,
      "cf": 5711,
      "cof": 5712,
      "cti": 5713,
      "cate": 5714,
      "crow": 5715,
      "cles": 5716,
      "dw": 5717,
      "dah": 5718,
      "eting": 5719,
      "fp": 5720,
      "fed": 5721,
      "flight": 5722,
      "gc": 5723,
      "gin": 5724,
      "hd": 5725,
      "hf": 5726,
      "hung": 5727,
      "hrs": 5728,
      "iv": 5729,
      "iation": 5730,
      "iow": 5731,
      "jis": 5732,
      "jut": 5733,
      "jim": 5734,
      "kon": 5735,
      "kit": 5736,
      "karen": 5737,
      "kka": 5738,
      "lis": 5739,
      "mut": 5740,
      "mart": 5741,
      "pand": 5742,
      "pati": 5743,
      "pfp": 5744,
      "rum": 5745,
      "sno": 5746,
      "scan": 5747,
      "sang": 5748,
      "site": 5749,
      "tree": 5750,
      "tbf": 5751,
      "uf": 5752,
      "uri": 5753,
      "vag": 5754,
      "vour": 5755,
      "vents": 5756,
      "x12": 5757,
      "то": 5758,
      "✨✨": 5759,
      "⠛⠉": 5760,
      "⡄⠀": 5761,
      "⣸⣿": 5762,
      "️holy": 5763,
      "💵💵": 5764,
      "😈🙏": 5765,
      "thang": 5766,
      "thick": 5767,
      "ining": 5768,
      "init": 5769,
      "infe": 5770,
      "anci": 5771,
      "erup": 5772,
      "atic": 5773,
      "atleast": 5774,
      "theme": 5775,
      "ony": 5776,
      "ouble": 5777,
      "rey": 5778,
      "rema": 5779,
      "reve": 5780,
      "returned": 5781,
      "record": 5782,
      "returns": 5783,
      "represent": 5784,
      "island": 5785,
      "mel": 5786,
      "meet": 5787,
      "ita": 5788,
      "itis": 5789,
      "total": 5790,
      "alab": 5791,
      "enni": 5792,
      "sts": 5793,
      "stone": 5794,
      "string": 5795,
      "idal": 5796,
      "asing": 5797,
      "edgy": 5798,
      "edged": 5799,
      "arab": 5800,
      "arter": 5801,
      "arrow": 5802,
      "whil": 5803,
      "beli": 5804,
      "beans": 5805,
      "sea": 5806,
      "chant": 5807,
      "chris": 5808,
      "roy": 5809,
      "robots": 5810,
      "keys": 5811,
      "mag": 5812,
      "soy": 5813,
      "solu": 5814,
      "rix": 5815,
      "liment": 5816,
      "liking": 5817,
      "escape": 5818,
      "aded": 5819,
      "adven": 5820,
      "advan": 5821,
      "goo": 5822,
      "goth": 5823,
      "tick": 5824,
      "tially": 5825,
      "tips": 5826,
      "kick": 5827,
      "uty": 5828,
      "coined": 5829,
      "lower": 5830,
      "losing": 5831,
      "lowing": 5832,
      "moon": 5833,
      "movi": 5834,
      "moves": 5835,
      "cease": 5836,
      "dob": 5837,
      "abuse": 5838,
      "peace": 5839,
      "pods": 5840,
      "nearest": 5841,
      "raising": 5842,
      "rapper": 5843,
      "gya": 5844,
      "notes": 5845,
      "bored": 5846,
      "yellow": 5847,
      "yeeeee": 5848,
      "hosp": 5849,
      "homie": 5850,
      "tast": 5851,
      "worked": 5852,
      "worried": 5853,
      "fee": 5854,
      "sumed": 5855,
      "donny": 5856,
      "conve": 5857,
      "contain": 5858,
      "convin": 5859,
      "teh": 5860,
      "tele": 5861,
      "thern": 5862,
      "exag": 5863,
      "explan": 5864,
      "expres": 5865,
      "oked": 5866,
      "ssion": 5867,
      "ulate": 5868,
      "bast": 5869,
      "bastic": 5870,
      "ppl": 5871,
      "whose": 5872,
      "whoever": 5873,
      "assuming": 5874,
      "diddy": 5875,
      "rainbow": 5876,
      "willing": 5877,
      "caul": 5878,
      "brow": 5879,
      "alphabet": 5880,
      "prop": 5881,
      "proof": 5882,
      "prove": 5883,
      "project": 5884,
      "seek": 5885,
      "typed": 5886,
      "owns": 5887,
      "spell": 5888,
      "fanbase": 5889,
      "civil": 5890,
      "berty": 5891,
      "goodbye": 5892,
      "realm": 5893,
      "bleed": 5894,
      "bless": 5895,
      "chip": 5896,
      "service": 5897,
      "dism": 5898,
      "disrup": 5899,
      "watches": 5900,
      "apart": 5901,
      "betas": 5902,
      "essenti": 5903,
      "suspic": 5904,
      "1101": 5905,
      "pix": 5906,
      "pick": 5907,
      "generational": 5908,
      "nick": 5909,
      "frank": 5910,
      "fried": 5911,
      "intended": 5912,
      "trouble": 5913,
      "finished": 5914,
      "download": 5915,
      "downvoted": 5916,
      "creation": 5917,
      "tryna": 5918,
      "ables": 5919,
      "levels": 5920,
      "tically": 5921,
      "redditors": 5922,
      "lessly": 5923,
      "bigger": 5924,
      "plains": 5925,
      "greg": 5926,
      "ativity": 5927,
      "cracking": 5928,
      "harsh": 5929,
      "minor": 5930,
      "!!!!!!!": 5931,
      "voices": 5932,
      "memories": 5933,
      "certi": 5934,
      "dumber": 5935,
      "support": 5936,
      "suppose": 5937,
      "compliment": 5938,
      "cultur": 5939,
      "block": 5940,
      "events": 5941,
      "hitler": 5942,
      "worker": 5943,
      "workout": 5944,
      "skbidi": 5945,
      "simps": 5946,
      "steals": 5947,
      "2019": 5948,
      "flash": 5949,
      ".\",": 5950,
      "trip": 5951,
      "trick": 5952,
      "ugly": 5953,
      "checked": 5954,
      "⣿⣿⣿⣿⣿⣿⣿⣿⣿⣿⣿": 5955,
      "originally": 5956,
      "hopefully": 5957,
      "sticked": 5958,
      "sounding": 5959,
      "crimes": 5960,
      "muster": 5961,
      "busy": 5962,
      "wont": 5963,
      "brid": 5964,
      "emojis": 5965,
      "charismatic": 5966,
      "gather": 5967,
      "farms": 5968,
      "relatable": 5969,
      "teaching": 5970,
      "viewers": 5971,
      "12x12": 5972,
      "cursed": 5973,
      "uuu": 5974,
      "confusion": 5975,
      "juice": 5976,
      "nightmare": 5977,
      "edited": 5978,
      "ttes": 5979,
      "choice": 5980,
      "chaotic": 5981,
      "transc": 5982,
      "⠀⠀⠀⠀⠀⠀⠀⠈": 5983,
      "drake": 5984,
      "drama": 5985,
      "picard": 5986,
      "?????": 5987,
      "clips": 5988,
      "restri": 5989,
      "portr": 5990,
      "bringing": 5991,
      "answered": 5992,
      "describing": 5993,
      "following": 5994,
      "followed": 5995,
      "forgotten": 5996,
      "⣿⣿⣿⣿⣿⡿": 5997,
      "possibly": 5998,
      "summer": 5999,
      "01110100": 6000,
      "🤬😡🤬🤬😡": 6001,
      "enemy": 6002,
      "enjoyed": 6003,
      "peaked": 6004,
      "pieces": 6005,
      "countries": 6006,
      "silent": 6007,
      "square": 6008,
      "leader": 6009,
      "identity": 6010,
      "victim": 6011,
      "groups": 6012,
      "nnnn": 6013,
      "absurdist": 6014,
      "accounts": 6015,
      "talented": 6016,
      "🗿🗿🗿🗿🗿": 6017,
      "techni": 6018,
      "paying": 6019,
      "thrown": 6020,
      "including": 6021,
      "developing": 6022,
      "flushed": 6023,
      "abababab": 6024,
      "01101101": 6025,
      "bitches": 6026,
      "😱😱😱😱😱😱😱": 6027,
      "⣤⣤⣤": 6028,
      "neighbor": 6029,
      "distin": 6030,
      "creators": 6031,
      "folks": 6032,
      "narr": 6033,
      "shouted": 6034,
      "audience": 6035,
      "surprise": 6036,
      "clickbait": 6037,
      "confirm": 6038,
      "target": 6039,
      "results": 6040,
      "awkward": 6041,
      "drug": 6042,
      "predatory": 6043,
      "impact": 6044,
      "funnier": 6045,
      "mushrooms": 6046,
      "absurdity": 6047,
      "oraoraoraora": 6048,
      "alien": 6049,
      "improve": 6050,
      "🚽🚽🚽🚽🚽🚽🚽🚽🚽🚽🚽🚽🚽🚽🚽🚽🚽🚽🚽🚽🚽🚽🚽🚽🚽🚽🚽🚽🚽🚽🚽🚽🚽🚽🚽🚽🚽🚽🚽🚽🚽🚽🚽🚽🚽🚽🚽🚽🚽🚽🚽🚽🚽🚽🚽🚽🚽🚽🚽🚽🚽🚽🚽🚽": 6051,
      "suffering": 6052,
      ";;;;;;;;": 6053,
      "individual": 6054,
      "individuals": 6055,
      "pushing": 6056,
      "despite": 6057,
      "despise": 6058,
      "🤬😡🤬😡🤬😡🤬🤬😡": 6059,
      "mirror": 6060,
      "receive": 6061,
      "tiny": 6062,
      "comfortable": 6063,
      "addicted": 6064,
      "birth": 6065,
      "schizop": 6066,
      "toddlers": 6067,
      "necessary": 6068,
      "platform": 6069,
      "yesterday": 6070,
      "tubular": 6071,
      "featuring": 6072,
      "citiz": 6073,
      "thicc": 6074,
      "dollar": 6075,
      "illuminati": 6076,
      "makeitstop": 6077,
      "warmup": 6078,
      "jamaican": 6079,
      "technology": 6080,
      "inhales": 6081,
      "attitude": 6082,
      "environment": 6083,
      "asshole": 6084,
      "cologne": 6085,
      "schooler": 6086,
      "youngpeopleyoutube": 6087,
      "difficult": 6088,
      "sarcasm": 6089,
      "inconvenience": 6090,
      "coffee": 6091,
      "iowa": 6092,
      "whilst": 6093,
      "solution": 6094,
      "movies": 6095,
      "hospital": 6096,
      "exagger": 6097,
      "explanation": 6098,
      "expresses": 6099,
      "essentially": 6100,
      "🤬😡🤬😡🤬😡🤬🤬😡🤬🤬😡": 6101,
      "schizoph": 6102,
      "!😂": 6103,
      "!?!": 6104,
      "!👀👀👀👀": 6105,
      "'.": 6106,
      "*,": 6107,
      ".💀": 6108,
      "1️⃣": 6109,
      "2nd": 6110,
      "31": 6111,
      "300": 6112,
      "43": 6113,
      "47": 6114,
      "4hrs": 6115,
      "5th": 6116,
      "67": 6117,
      "727": 6118,
      "87": 6119,
      "97": 6120,
      ">>": 6121,
      "bone": 6122,
      "blah": 6123,
      "cj": 6124,
      "cci": 6125,
      "camp": 6126,
      "dk": 6127,
      "dor": 6128,
      "dust": 6129,
      "dry": 6130,
      "duty": 6131,
      "echo": 6132,
      "fx": 6133,
      "fade": 6134,
      "gan": 6135,
      "gno": 6136,
      "gum": 6137,
      "gment": 6138,
      "gard": 6139,
      "gaster": 6140,
      "hend": 6141,
      "ient": 6142,
      "iast": 6143,
      "ipline": 6144,
      "jam": 6145,
      "jac": 6146,
      "jap": 6147,
      "kne": 6148,
      "knight": 6149,
      "lor": 6150,
      "lsu": 6151,
      "lish": 6152,
      "mw": 6153,
      "mies": 6154,
      "mash": 6155,
      "ners": 6156,
      "nically": 6157,
      "o2": 6158,
      "ox": 6159,
      "osu": 6160,
      "oba": 6161,
      "ology": 6162,
      "ogue": 6163,
      "pto": 6164,
      "pad": 6165,
      "pig": 6166,
      "pink": 6167,
      "pound": 6168,
      "pump": 6169,
      "ram": 6170,
      "rab": 6171,
      "rang": 6172,
      "rats": 6173,
      "sof": 6174,
      "ske": 6175,
      "tl": 6176,
      "twi": 6177,
      "tab": 6178,
      "tide": 6179,
      "vine": 6180,
      "vance": 6181,
      "vise": 6182,
      "vider": 6183,
      "wd": 6184,
      "wty": 6185,
      "winter": 6186,
      "witch": 6187,
      "yp": 6188,
      "yor": 6189,
      "yap": 6190,
      "zam": 6191,
      "zill": 6192,
      "||": 6193,
      "”?": 6194,
      "▔▔": 6195,
      "⠀⠠": 6196,
      "⠀⡴": 6197,
      "⠁⠀": 6198,
      "⠁⠀⠀⠀": 6199,
      "⠁⠀⠀⠀⠀⠀": 6200,
      "⠇⠀": 6201,
      "⠉⠛⠛": 6202,
      "⠋⠁": 6203,
      "⠙⢿": 6204,
      "⠛⠻": 6205,
      "⠛⢿": 6206,
      "⠤⠄": 6207,
      "⢀⣴": 6208,
      "⢻⣿⡇": 6209,
      "⣀⡀": 6210,
      "⣀⠀⠀⠀⠀⠀⠀⠀": 6211,
      "⣄⡀": 6212,
      "⣠⣾": 6213,
      "⣤⣴": 6214,
      "⣦⣄": 6215,
      "⣧⡀": 6216,
      "⣴⣶": 6217,
      "👈🏿": 6218,
      "👊👊": 6219,
      "👏🏾": 6220,
      "💜❤": 6221,
      "💥💥": 6222,
      "🔛🔛": 6223,
      "🙈🙈": 6224,
      "thand": 6225,
      "thri": 6226,
      "infer": 6227,
      "infin": 6228,
      "incorrect": 6229,
      "inspi": 6230,
      "anal": 6231,
      "ances": 6232,
      "erous": 6233,
      "atus": 6234,
      "ouri": 6235,
      "ress": 6236,
      "iss": 6237,
      "melt": 6238,
      "itar": 6239,
      "itter": 6240,
      "ittle": 6241,
      "toler": 6242,
      "algor": 6243,
      "allowing": 6244,
      "enthus": 6245,
      "stam": 6246,
      "stain": 6247,
      "leon": 6248,
      "anda": 6249,
      "idid": 6250,
      "idol": 6251,
      "asp": 6252,
      "arc": 6253,
      "arms": 6254,
      "argue": 6255,
      "wher": 6256,
      "bel": 6257,
      "below": 6258,
      "sec": 6259,
      "seven": 6260,
      "sets": 6261,
      "cher": 6262,
      "chron": 6263,
      "rome": 6264,
      "kept": 6265,
      "mah": 6266,
      "aave": 6267,
      "soo": 6268,
      "sokka": 6269,
      "haun": 6270,
      "rian": 6271,
      "rior": 6272,
      "rical": 6273,
      "lig": 6274,
      "lizz": 6275,
      "liqu": 6276,
      "aysi": 6277,
      "hee": 6278,
      "hep": 6279,
      "heat": 6280,
      "held": 6281,
      "heim": 6282,
      "adding": 6283,
      "addition": 6284,
      "adhd": 6285,
      "goal": 6286,
      "unable": 6287,
      "wigg": 6288,
      "uts": 6289,
      "forth": 6290,
      "formed": 6291,
      "forgive": 6292,
      "coward": 6293,
      "location": 6294,
      "skip": 6295,
      "usive": 6296,
      "moving": 6297,
      "peppy": 6298,
      "dete": 6299,
      "weak": 6300,
      "pom": 6301,
      "popping": 6302,
      "postor": 6303,
      "⣿⣿⡟": 6304,
      "⣿⣿⣟": 6305,
      "⣿⣿⣷": 6306,
      "rawr": 6307,
      "raphy": 6308,
      "rizzle": 6309,
      "rizzmas": 6310,
      "rizzonom": 6311,
      "ict": 6312,
      "acy": 6313,
      "acqu": 6314,
      "accor": 6315,
      "actor": 6316,
      "boil": 6317,
      "gho": 6318,
      "yelled": 6319,
      "yelling": 6320,
      "nta": 6321,
      "ife": 6322,
      "hog": 6323,
      "homo": 6324,
      "hoping": 6325,
      "gene": 6326,
      "tage": 6327,
      "tags": 6328,
      "fever": 6329,
      "feet": 6330,
      "feature": 6331,
      "suic": 6332,
      "sugma": 6333,
      "congreg": 6334,
      "001": 6335,
      "00pm": 6336,
      "tee": 6337,
      "ament": 6338,
      "imately": 6339,
      "impossible": 6340,
      "immature": 6341,
      "theres": 6342,
      "combat": 6343,
      "exce": 6344,
      "exposed": 6345,
      "fuckfuck": 6346,
      "shits": 6347,
      "bap": 6348,
      "indian": 6349,
      "ppin": 6350,
      "ppers": 6351,
      "illegal": 6352,
      "0110000": 6353,
      "dio": 6354,
      "dian": 6355,
      "illness": 6356,
      "redu": 6357,
      "broski": 6358,
      "cts": 6359,
      "provider": 6360,
      "sake": 6361,
      "saved": 6362,
      "braincells": 6363,
      "everytime": 6364,
      "gucci": 6365,
      "guitar": 6366,
      "manner": 6367,
      "typing": 6368,
      "tywin": 6369,
      "spending": 6370,
      "prevent": 6371,
      "fancy": 6372,
      "atched": 6373,
      "mald": 6374,
      "malaysi": 6375,
      "dynam": 6376,
      "via": 6377,
      "rotting": 6378,
      "bledore": 6379,
      "fax": 6380,
      "failed": 6381,
      "serv": 6382,
      "diss": 6383,
      "dislike": 6384,
      "disagree": 6385,
      "disbelief": 6386,
      "disipline": 6387,
      "aked": 6388,
      "cringiest": 6389,
      "pheno": 6390,
      "standard": 6391,
      "??!!": 6392,
      "foc": 6393,
      "shaka": 6394,
      "shawty": 6395,
      "susie": 6396,
      "susssss": 6397,
      "buzz": 6398,
      "bugat": 6399,
      "stories": 6400,
      "11100": 6401,
      "pire": 6402,
      "overload": 6403,
      "useless": 6404,
      "network": 6405,
      "contra": 6406,
      "grif": 6407,
      "grim": 6408,
      "finds": 6409,
      "downs": 6410,
      "creativity": 6411,
      "clout": 6412,
      "clusion": 6413,
      "⠀⠀⠀⠀⠀⠀⠀⠀⠀⠀⠀⠀⠀": 6414,
      "menon": 6415,
      "shakespe": 6416,
      "corrup": 6417,
      "ffic": 6418,
      "shown": 6419,
      "david": 6420,
      "mistakes": 6421,
      "miserable": 6422,
      "sincere": 6423,
      "turk": 6424,
      "harm": 6425,
      "harlem": 6426,
      "applic": 6427,
      "minimum": 6428,
      "minions": 6429,
      "medbay": 6430,
      "gling": 6431,
      "smash": 6432,
      "dumbledore": 6433,
      "tures": 6434,
      "encou": 6435,
      "⠀⠀⠀⢀": 6436,
      "pretend": 6437,
      "emp": 6438,
      "culin": 6439,
      "shove": 6440,
      "girlfriend": 6441,
      "uhmm": 6442,
      "evable": 6443,
      "hardly": 6444,
      "capital": 6445,
      "partner": 6446,
      "mindlessly": 6447,
      "steal": 6448,
      "steam": 6449,
      "2014": 6450,
      "2015": 6451,
      "2010s": 6452,
      "baller": 6453,
      "paid": 6454,
      "sipping": 6455,
      "dunn": 6456,
      "milest": 6457,
      "languages": 6458,
      "pastas": 6459,
      "2008": 6460,
      "01001101": 6461,
      "topic": 6462,
      "crimin": 6463,
      "irony": 6464,
      "business": 6465,
      "twitter": 6466,
      "sexy": 6467,
      "meanings": 6468,
      "jection": 6469,
      "primary": 6470,
      "ships": 6471,
      "throughout": 6472,
      "nerf": 6473,
      "tortured": 6474,
      "15am": 6475,
      "edgemaxxing": 6476,
      "looksmax": 6477,
      "puberty": 6478,
      "30am": 6479,
      "passing": 6480,
      "bald": 6481,
      "balance": 6482,
      "ctively": 6483,
      "problematic": 6484,
      "causing": 6485,
      "choices": 6486,
      "cutting": 6487,
      "evolves": 6488,
      "cyber": 6489,
      "portion": 6490,
      "switch": 6491,
      "explaining": 6492,
      "bullying": 6493,
      "respectful": 6494,
      "vors": 6495,
      "vortex": 6496,
      "virtu": 6497,
      "hypo": 6498,
      "spoon": 6499,
      "valid": 6500,
      "madness": 6501,
      "synthes": 6502,
      "ipads": 6503,
      "sooner": 6504,
      "dogshit": 6505,
      "summary": 6506,
      "appeal": 6507,
      "factory": 6508,
      "dedic": 6509,
      "filter": 6510,
      "grades": 6511,
      "approach": 6512,
      "trollface": 6513,
      "regard": 6514,
      "🔥🔥🔥🔥🔥": 6515,
      "eats": 6516,
      "templ": 6517,
      "expectedamongus": 6518,
      "expectedthanos": 6519,
      "squid": 6520,
      "fella": 6521,
      "hahahahahah": 6522,
      "gedy": 6523,
      "released": 6524,
      "leading": 6525,
      "identally": 6526,
      "covered": 6527,
      "amongusmemes": 6528,
      "tables": 6529,
      "flag": 6530,
      "slime": 6531,
      "masterpiece": 6532,
      "excited": 6533,
      "salty": 6534,
      "property": 6535,
      "!!!!!!!!!!!!!!": 6536,
      "yrs": 6537,
      "message": 6538,
      "messages": 6539,
      "presence": 6540,
      "transition": 6541,
      "🗿🗿🗿🗿🗿🗿🗿🗿🗿": 6542,
      "cognit": 6543,
      "technically": 6544,
      "radical": 6545,
      "🟥🟥🟥": 6546,
      "🟥🟥🟥🟥🟥": 6547,
      "feelings": 6548,
      "definitions": 6549,
      "🏥🏥🏥🏥🏥🏥🏥🏥": 6550,
      "👀👀👀👀👀👀": 6551,
      "explosion": 6552,
      "🔫😠🔫😠🔫😠": 6553,
      "🔫😠🔫😠🔫😠🔫😠🔫😠": 6554,
      "clown": 6555,
      "joked": 6556,
      "01101100": 6557,
      "01101111": 6558,
      "intelligence": 6559,
      "phic": 6560,
      "ridd": 6561,
      "utterly": 6562,
      "dominance": 6563,
      "depend": 6564,
      "depending": 6565,
      "fetch": 6566,
      "fetus": 6567,
      "unexpectedamongus": 6568,
      "unexpectedthanos": 6569,
      "positive": 6570,
      "failure": 6571,
      "pictures": 6572,
      "professor": 6573,
      "santa": 6574,
      "sanity": 6575,
      "challeng": 6576,
      "expressing": 6577,
      "script": 6578,
      "walls": 6579,
      "relationships": 6580,
      "satis": 6581,
      "leapfrog": 6582,
      "shopping": 6583,
      "blings": 6584,
      "regularly": 6585,
      "👿👿👿👿": 6586,
      "funniest": 6587,
      "mushroom": 6588,
      "billions": 6589,
      "promise": 6590,
      "😲😲😲": 6591,
      "quickly": 6592,
      "jelqing": 6593,
      "jerse": 6594,
      "required": 6595,
      "directly": 6596,
      "hidden": 6597,
      "ithm": 6598,
      "jargon": 6599,
      "ninja": 6600,
      "witness": 6601,
      "💯💀💯💀": 6602,
      "psycho": 6603,
      "poetry": 6604,
      "electronic": 6605,
      "pronounce": 6606,
      "ctual": 6607,
      "nasty": 6608,
      "canadian": 6609,
      "congrat": 6610,
      "harassment": 6611,
      "apologize": 6612,
      "thousands": 6613,
      "execute": 6614,
      "06am": 6615,
      "axel": 6616,
      "zombie": 6617,
      "refuse": 6618,
      "ignorant": 6619,
      "weirder": 6620,
      "acceler": 6621,
      "extens": 6622,
      "grubhub": 6623,
      "assistant": 6624,
      "religious": 6625,
      "diagnosed": 6626,
      "french": 6627,
      "husband": 6628,
      "yikes": 6629,
      "noticed": 6630,
      "security": 6631,
      "chamber": 6632,
      "adapt": 6633,
      "copter": 6634,
      "acronym": 6635,
      "hashtag": 6636,
      "dialogue": 6637,
      "perceived": 6638,
      "perspective": 6639,
      "pedophile": 6640,
      "groovy": 6641,
      "brazil": 6642,
      "repetitive": 6643,
      "😂🤣😂🤣😂🤣😂😂😂🤣🤣🤣😂😂😂": 6644,
      "strength": 6645,
      "hungry": 6646,
      "ancient": 6647,
      "alabama": 6648,
      "believable": 6649,
      "suspicious": 6650,
      "cultural": 6651,
      "technique": 6652,
      "!👀👀👀👀👀👀👀👀👀👀": 6653,
      "⠛⢿⣿⣿⣿⣿": 6654,
      "inferior": 6655,
      "inspired": 6656,
      "algorithm": 6657,
      "enthusiast": 6658,
      "chronically": 6659,
      "rizzonomics": 6660,
      "congregation": 6661,
      "01100001": 6662,
      "phenomenon": 6663,
      "bugatti": 6664,
      "synthesizing": 6665,
      "!!!!!!!!!!!!!!😂🤣😂🤣😂🤣😂😂😂🤣🤣🤣😂😂😂": 6666,
      "!**": 6667,
      "\"!": 6668,
      "\"...": 6669,
      "(.)": 6670,
      ")\"": 6671,
      "))": 6672,
      "*.": 6673,
      "-|": 6674,
      "05": 6675,
      "28": 6676,
      "21st": 6677,
      "42": 6678,
      "44": 6679,
      "48": 6680,
      "4th": 6681,
      "57": 6682,
      "5k": 6683,
      "66": 6684,
      "79": 6685,
      "93": 6686,
      "98": 6687,
      ">:(": 6688,
      "_07": 6689,
      "az": 6690,
      "aki": 6691,
      "agen": 6692,
      "await": 6693,
      "bam": 6694,
      "bass": 6695,
      "bill": 6696,
      "bright": 6697,
      "bies": 6698,
      "cin": 6699,
      "cis": 6700,
      "cally": 6701,
      "cart": 6702,
      "cuh": 6703,
      "din": 6704,
      "dame": 6705,
      "dang": 6706,
      "dabab": 6707,
      "danger": 6708,
      "dinner": 6709,
      "emon": 6710,
      "fare": 6711,
      "fame": 6712,
      "fent": 6713,
      "fold": 6714,
      "gis": 6715,
      "gle": 6716,
      "glo": 6717,
      "gap": 6718,
      "gging": 6719,
      "han": 6720,
      "hon": 6721,
      "honk": 6722,
      "horn": 6723,
      "hater": 6724,
      "hedge": 6725,
      "hmm": 6726,
      "ib": 6727,
      "ihad": 6728,
      "imed": 6729,
      "jk": 6730,
      "js": 6731,
      "jour": 6732,
      "june": 6733,
      "kk": 6734,
      "kys": 6735,
      "lan": 6736,
      "lum": 6737,
      "laura": 6738,
      "mb": 6739,
      "nights": 6740,
      "ore": 6741,
      "oop": 6742,
      "ocre": 6743,
      "ohhhh": 6744,
      "olog": 6745,
      "pti": 6746,
      "pread": 6747,
      "ray": 6748,
      "round": 6749,
      "rush": 6750,
      "skid": 6751,
      "sni": 6752,
      "srd": 6753,
      "tan": 6754,
      "tum": 6755,
      "tough": 6756,
      "tour": 6757,
      "tank": 6758,
      "uke": 6759,
      "ura": 6760,
      "uistic": 6761,
      "uhhh": 6762,
      "vate": 6763,
      "vill": 6764,
      "vive": 6765,
      "vage": 6766,
      "wat": 6767,
      "wut": 6768,
      "wides": 6769,
      "zon": 6770,
      "zip": 6771,
      "……": 6772,
      "⠀⠴": 6773,
      "⠀⣿⣿⣿⣿⣿⣿⣿⣿⣿": 6774,
      "⠀⣀⣠": 6775,
      "⠁⠀⠀⠀⠀⠀⠀⠀⠀⠀⠀⠀⠀⠀⠀⠀⠀": 6776,
      "⠃⠀⠀⠀⠀⠀⠀⠀⠀": 6777,
      "⠃⠀⠀⠀⠀⠀": 6778,
      "⠃⠀⣿⣿⣿⣿⣿⣿⣿⣿⣿": 6779,
      "⠄⠀": 6780,
      "⠄⠊": 6781,
      "⠄⠘": 6782,
      "⠄⠙": 6783,
      "⠄⠀⠀⠀⠀⠀⠀": 6784,
      "⠈⠢": 6785,
      "⠈⠀⠀⠀⠀⠀⠀⠀⠀": 6786,
      "⠈⠉⠉": 6787,
      "⠈⣿⣿⡿": 6788,
      "⠈⠃⠀⠀⠀⠀⠀⠀⠀⠀": 6789,
      "⠉⠙": 6790,
      "⠉⠛⢿⣿⣿⣿⣿": 6791,
      "⠉⠈⠉⠉": 6792,
      "⠊⠀⠀⠀⠀⠀": 6793,
      "⠋⢀": 6794,
      "⠋⠁⠀⠀": 6795,
      "⠎⢸⣿": 6796,
      "⠏⠀⠠": 6797,
      "⠑⡀⠀⠀⠀⠀⠀⠀⠀⠀⠀⠀⠀⠀⠀⠀⠀⠀": 6798,
      "⠒⠈⠀⠀⠀⠀⠀⠀⠀⠀": 6799,
      "⠖⠀⠀⠀⠀⠀⠀⠀⠀⠀⠀⠀": 6800,
      "⠗⢘": 6801,
      "⠘⣀": 6802,
      "⠘⣿⣿⣿⣿⣿⣿⣿⣿⣿⣿⣿⣿⣿⣿": 6803,
      "⠘⡀⠀⠀⠀⠀⠀⠀⠀⠀⠀⠀⠀⠀⠀⠀⠀⠀": 6804,
      "⠙⠻": 6805,
      "⠙⠿": 6806,
      "⠙⣿⣿⡟": 6807,
      "⠛⠿": 6808,
      "⠛⣿⣿": 6809,
      "⠛⠀⣀⣠": 6810,
      "⠛⠃⠀⠀⠀⠀⠀": 6811,
      "⠟⠻": 6812,
      "⠟⠀⠀⠀⠀⢀": 6813,
      "⠴⠊⠀⠀⠀⠀⠀": 6814,
      "⠶⢴": 6815,
      "⠶⠖⠀⠀⠀⠀⠀⠀⠀⠀⠀⠀⠀": 6816,
      "⠹⣿": 6817,
      "⠿⠛⠛": 6818,
      "⠿⠛⠉⠉": 6819,
      "⡀⢠": 6820,
      "⡀⠀⠀": 6821,
      "⡀⠀⠀⠀⠀⠀": 6822,
      "⡄⣿": 6823,
      "⡄⠀⠀⠀": 6824,
      "⡄⠀⠀⠀⠀⢀": 6825,
      "⡄⠈⠃⠀⠀⠀⠀⠀⠀⠀⠀": 6826,
      "⡆⠀⠀⠀⠀⠀⠀": 6827,
      "⡆⠀⠀⠀⠀⠀⠀⠀⠈": 6828,
      "⡋⠀⠀⠀": 6829,
      "⡌⢰": 6830,
      "⡏⣀⠀⠀⠀⠀⠀⠀⠀": 6831,
      "⡔⠁⠀⠀⠀": 6832,
      "⡜⠀⠀⠀": 6833,
      "⡟⠁⠀⠀⠀⠀⠀": 6834,
      "⡴⣸⣿": 6835,
      "⡶⠶⠖⠀⠀⠀⠀⠀⠀⠀⠀⠀⠀⠀": 6836,
      "⡸⠀⣿⣿⣿⣿": 6837,
      "⡿⠄⠙": 6838,
      "⢀⣀⣠": 6839,
      "⢀⣾⣿⣿⣿⣿⣿": 6840,
      "⢃⠀⠀": 6841,
      "⢄⠀⠀⠀⠀⠀⠀⠀⠀⠀⠀⠀⠀⠀⠀⠀": 6842,
      "⢏⣴": 6843,
      "⢐⣿⣿⣿⣿⣿⣿⣿⣿⣿": 6844,
      "⢗⣠": 6845,
      "⢠⣦": 6846,
      "⢢⠀⠀⠀⠀⠀⠀⠀": 6847,
      "⢰⢠⣦": 6848,
      "⢸⣿⣿⣿⣿": 6849,
      "⢸⣿⣿⣧": 6850,
      "⢸⠀⠀⠀⠀⠀⠀⠀⠀⠀⠀": 6851,
      "⢸⠀⠀⠀⢀": 6852,
      "⢹⡇⠀⠀⠀⠀⠀⠀⠀⠀⠀⠀⠀⠀⠀⠀⠀⠀": 6853,
      "⢻⣿⣿⣿⣿⣿⣿⣿⣿⣿": 6854,
      "⢻⠄⠘": 6855,
      "⢾⣿⣿⣿⣿": 6856,
      "⢿⣿⣿⣿⣿⣿⣿⣿": 6857,
      "⢿⣧⠈": 6858,
      "⢿⡀⠀⠀⠀⠀⠀": 6859,
      "⣀⣤⣤⣤": 6860,
      "⣀⠴⠊⠀⠀⠀⠀⠀": 6861,
      "⣀⡸⠀⣿⣿⣿⣿": 6862,
      "⣁⡀⠀⠀": 6863,
      "⣄⠀⠀⠀⠀⠀⠀⠀": 6864,
      "⣇⡄⠀⠀⠀⠀⢀": 6865,
      "⣟⠀⡴": 6866,
      "⣟⠛⠿": 6867,
      "⣠⣴": 6868,
      "⣧⠀⠀⠀": 6869,
      "⣧⠀⠀⠀⠀⠀⠀": 6870,
      "⣰⣿⣿⣿⣿": 6871,
      "⣴⣿⣿⣿⣿⣿⣿⣿": 6872,
      "⣷⡄⠀⠀⠀": 6873,
      "⣷⢢⠀⠀⠀⠀⠀⠀⠀": 6874,
      "⣿⡄⣿": 6875,
      "⣿⡋⠀⠀⠀": 6876,
      "⣿⣁⡀⠀⠀": 6877,
      "⣿⣟⠛⠿": 6878,
      "🅱️": 6879,
      "🇪🇺": 6880,
      "🌚💀": 6881,
      "🍕🍑🍑🍑🍑🍑🍑🍑": 6882,
      "🏈🏈": 6883,
      "👇👇": 6884,
      "👨🏿": 6885,
      "👩🏿": 6886,
      "💀🫱": 6887,
      "💨😮": 6888,
      "😀😐": 6889,
      "😤😤": 6890,
      "🚩🚩": 6891,
      "🚽😲😲😲": 6892,
      "🤚🏼": 6893,
      "🤧🤧": 6894,
      "🤮🤮": 6895,
      "🥱🥱": 6896,
      "🪇😬😬😬": 6897,
      "🪑🪑": 6898,
      "🪠🚽🚽🚽🚽": 6899,
      "thx": 6900,
      "thum": 6901,
      "inn": 6902,
      "infli": 6903,
      "instru": 6904,
      "inspir": 6905,
      "incoherent": 6906,
      "intense": 6907,
      "erie": 6908,
      "error": 6909,
      "ouch": 6910,
      "reme": 6911,
      "rever": 6912,
      "reput": 6913,
      "reconsider": 6914,
      "repose": 6915,
      "remembers": 6916,
      "renia": 6917,
      "rettes": 6918,
      "ings": 6919,
      "meh": 6920,
      "meal": 6921,
      "mega": 6922,
      "meeting": 6923,
      "itation": 6924,
      "alco": 6925,
      "alds": 6926,
      "enous": 6927,
      "encer": 6928,
      "enlight": 6929,
      "stun": 6930,
      "sters": 6931,
      "stink": 6932,
      "staf": 6933,
      "org": 6934,
      "leto": 6935,
      "lection": 6936,
      "andise": 6937,
      "asion": 6938,
      "nose": 6939,
      "nooo": 6940,
      "noise": 6941,
      "nooooo": 6942,
      "arily": 6943,
      "arune": 6944,
      "whirl": 6945,
      "bean": 6946,
      "behold": 6947,
      "belly": 6948,
      "ofc": 6949,
      "offer": 6950,
      "sep": 6951,
      "sees": 6952,
      "separ": 6953,
      "section": 6954,
      "selling": 6955,
      "chic": 6956,
      "chest": 6957,
      "chem": 6958,
      "champ": 6959,
      "chandise": 6960,
      "role": 6961,
      "rope": 6962,
      "rolled": 6963,
      "kest": 6964,
      "vest": 6965,
      "hab": 6966,
      "hack": 6967,
      "hable": 6968,
      "rial": 6969,
      "river": 6970,
      "lip": 6971,
      "lice": 6972,
      "ligh": 6973,
      "liber": 6974,
      "esday": 6975,
      "aye": 6976,
      "ller": 6977,
      "llable": 6978,
      "hehe": 6979,
      "ads": 6980,
      "ador": 6981,
      "adam": 6982,
      "gos": 6983,
      "tie": 6984,
      "tient": 6985,
      "tight": 6986,
      "tific": 6987,
      "⠀⠀⠘⡀⠀⠀⠀⠀⠀⠀⠀⠀⠀⠀⠀⠀⠀⠀⠀⠀": 6988,
      "⠀⠀⣰⣿⣿⣿⣿": 6989,
      "unic": 6990,
      "unhing": 6991,
      "unhealthy": 6992,
      "uncomfortable": 6993,
      "myster": 6994,
      "wich": 6995,
      "utes": 6996,
      "igenous": 6997,
      "cocome": 6998,
      "gear": 6999,
      "geog": 7000,
      "geome": 7001,
      "loser": 7002,
      "ami": 7003,
      "ambe": 7004,
      "hier": 7005,
      "moms": 7006,
      "motiv": 7007,
      "verb": 7008,
      "celebr": 7009,
      "dos": 7010,
      "dot": 7011,
      "door": 7012,
      "dots": 7013,
      "shat": 7014,
      "shed": 7015,
      "abbre": 7016,
      "pew": 7017,
      "peter": 7018,
      "pepp": 7019,
      "pepper": 7020,
      "dew": 7021,
      "dest": 7022,
      "degener": 7023,
      "decl": 7024,
      "delt": 7025,
      "define": 7026,
      "devic": 7027,
      "outdated": 7028,
      "wey": 7029,
      "pov": 7030,
      "powers": 7031,
      "neck": 7032,
      "⣿⣿⡇⠀⠀⠀⠀⠀⠀⠀⠀⠀⠀⠀⠀⠀⠀⠀⠀": 7033,
      "⣿⣿⠋⢀": 7034,
      "⣿⣿⡆⠀⠀⠀⠀⠀⠀⠀⠈": 7035,
      "rapping": 7036,
      "raised": 7037,
      "racial": 7038,
      "irrelevant": 7039,
      "rizzy": 7040,
      "rizzer": 7041,
      "justin": 7042,
      "justice": 7043,
      "allat": 7044,
      "..?": 7045,
      "acu": 7046,
      "acle": 7047,
      "acid": 7048,
      "acts": 7049,
      "active": 7050,
      "boop": 7051,
      "bowed": 7052,
      "genoc": 7053,
      "ohioan": 7054,
      "taper": 7055,
      "oper": 7056,
      "aur": 7057,
      "donalds": 7058,
      "conclusion": 7059,
      "contempl": 7060,
      "00101": 7061,
      "gyattt": 7062,
      "⠀⠀⠀⠀⠈⠢": 7063,
      "⠀⠀⠀⠀⠘⣿⣿⣿⣿⣿⣿⣿⣿⣿⣿⣿⣿⣿⣿": 7064,
      "⠀⠀⠀⠀⡔⠁⠀⠀⠀": 7065,
      "entist": 7066,
      "impostor": 7067,
      "anytime": 7068,
      "combo": 7069,
      "combust": 7070,
      "exor": 7071,
      "!!\"": 7072,
      "fucks": 7073,
      "lazy": 7074,
      "ryan": 7075,
      "ulations": 7076,
      "grhu": 7077,
      "indigenous": 7078,
      "asser": 7079,
      "histori": 7080,
      "ideas": 7081,
      "urge": 7082,
      "iling": 7083,
      "0110": 7084,
      "dicks": 7085,
      "diverse": 7086,
      "diarr": 7087,
      "💀💀😳": 7088,
      "illiter": 7089,
      "aga": 7090,
      "aganda": 7091,
      "⣿⣿⣿⣿⡿": 7092,
      "⣿⣿⣿⣿⣧⡀": 7093,
      "⣿⣿⣿⣿⠿⠛⠉⠉": 7094,
      "⣿⣿⣿⣿⡄⠈⠃⠀⠀⠀⠀⠀⠀⠀⠀": 7095,
      "⣿⣿⣿⣿⡏⣀⠀⠀⠀⠀⠀⠀⠀": 7096,
      "⣿⣿⣿⣿⣟⠀⡴": 7097,
      "kingdom": 7098,
      "cting": 7099,
      "provid": 7100,
      "program": 7101,
      "plant": 7102,
      "...\"": 7103,
      "peror": 7104,
      "fund": 7105,
      "funky": 7106,
      "guh": 7107,
      "guar": 7108,
      "managed": 7109,
      "joined": 7110,
      "ineer": 7111,
      "owned": 7112,
      "spor": 7113,
      "sphere": 7114,
      "ighyo": 7115,
      "naw": 7116,
      "nail": 7117,
      "babies": 7118,
      "berg": 7119,
      "realise": 7120,
      "realistic": 7121,
      "viet": 7122,
      "rotted": 7123,
      "underage": 7124,
      "bleach": 7125,
      "blessed": 7126,
      "generally": 7127,
      "generated": 7128,
      "serie": 7129,
      "scale": 7130,
      "scrolling": 7131,
      "pher": 7132,
      "bucks": 7133,
      "stole": 7134,
      "interpret": 7135,
      "interactions": 7136,
      "rights": 7137,
      "shee": 7138,
      "estab": 7139,
      "humble": 7140,
      "sentient": 7141,
      "frust": 7142,
      "ohighyo": 7143,
      "contacting": 7144,
      "firm": 7145,
      "trust": 7146,
      "trade": 7147,
      "finna": 7148,
      "cream": 7149,
      "creeper": 7150,
      "istan": 7151,
      "clar": 7152,
      "sings": 7153,
      "singer": 7154,
      "⠀⠀⠀⠀⠀⠀⠀⠀⠀⠀⠀⠀⢀": 7155,
      "⠀⠀⠀⠀⠀⠀⠀⠀⢀⣼": 7156,
      "⠀⠀⠀⠀⠀⠀⠀⠀⢐⣿⣿⣿⣿⣿⣿⣿⣿⣿": 7157,
      "wae": 7158,
      "wack": 7159,
      "afterwards": 7160,
      "syllable": 7161,
      "mater": 7162,
      "matrix": 7163,
      "lesson": 7164,
      "lessons": 7165,
      "babysit": 7166,
      "corpor": 7167,
      "😔😔😔": 7168,
      "censor": 7169,
      "censored": 7170,
      "mise": 7171,
      "crappy": 7172,
      "harambe": 7173,
      "desk": 7174,
      "wrist": 7175,
      "voting": 7176,
      "field": 7177,
      "💀💀💀💀💀💀": 7178,
      "traum": 7179,
      "company": 7180,
      "encoun": 7181,
      "⠀⠀⠀⣿⣿⣿⣿⣿": 7182,
      "⠀⠀⠀⠑⡀⠀⠀⠀⠀⠀⠀⠀⠀⠀⠀⠀⠀⠀⠀⠀⠀": 7183,
      "emer": 7184,
      "emphas": 7185,
      "empire": 7186,
      "emperor": 7187,
      "warrant": 7188,
      "warrior": 7189,
      "stupidity": 7190,
      "shock": 7191,
      "kills": 7192,
      "survive": 7193,
      "caps": 7194,
      "capacity": 7195,
      "brea": 7196,
      "dada": 7197,
      "remembered": 7198,
      "muslim": 7199,
      "muscles": 7200,
      "setup": 7201,
      "accidentally": 7202,
      "griddied": 7203,
      "married": 7204,
      "steel": 7205,
      "stealing": 7206,
      "2011": 7207,
      "flat": 7208,
      "norm": 7209,
      "finding": 7210,
      "tripping": 7211,
      "cution": 7212,
      "honey": 7213,
      "nextbots": 7214,
      "cheer": 7215,
      "classmate": 7216,
      "diff": 7217,
      "objective": 7218,
      "originating": 7219,
      "colon": 7220,
      "colbert": 7221,
      "2009": 7222,
      "01000100": 7223,
      "01000111": 7224,
      "01001000": 7225,
      "01000001": 7226,
      "01000110": 7227,
      "crisis": 7228,
      "topics": 7229,
      "ential": 7230,
      "drown": 7231,
      "drops": 7232,
      "highly": 7233,
      "bussy": 7234,
      "zyzz": 7235,
      "mediocre": 7236,
      "owner": 7237,
      "brr": 7238,
      "brought": 7239,
      "jected": 7240,
      "lights": 7241,
      "bruv": 7242,
      "shizzle": 7243,
      "satirical": 7244,
      "osity": 7245,
      "concerning": 7246,
      "🍑🍑🍑🍑💀💀": 7247,
      "wannabe": 7248,
      "farm": 7249,
      "farming": 7250,
      "effe": 7251,
      "helped": 7252,
      "curse": 7253,
      "merchandise": 7254,
      "atively": 7255,
      "musicians": 7256,
      "millenial": 7257,
      "passage": 7258,
      "pingas": 7259,
      "masculin": 7260,
      "cats": 7261,
      "juliet": 7262,
      "caused": 7263,
      "trees": 7264,
      "treasure": 7265,
      "clever": 7266,
      "anese": 7267,
      "missouri": 7268,
      "⠀⠀⠀⠀⠀⠀⠀⠙⢿": 7269,
      "⠀⠀⠀⠀⠀⠀⠀⠘⣀": 7270,
      "⠀⠀⠀⠀⠀⠀⠀⢸⠀⠀⠀⢀": 7271,
      "bars": 7272,
      "drag": 7273,
      "picnic": 7274,
      "\\*\"": 7275,
      "drive": 7276,
      "drill": 7277,
      "gigachads": 7278,
      "🍷🍷🍷🍷": 7279,
      "tourettes": 7280,
      "shorthand": 7281,
      "linguistic": 7282,
      "runs": 7283,
      "⣿⣿⣿⣧⠈": 7284,
      "⣿⣿⣿⠟⠻": 7285,
      "⣿⣿⣿⡀⢠": 7286,
      "⣿⣿⣿⢏⣴": 7287,
      "😎😎😎": 7288,
      "⠀⠀⠀⠀⠀⢾⣿⣿⣿⣿": 7289,
      "amazon": 7290,
      "legs": 7291,
      "01010101": 7292,
      "01011001": 7293,
      "growth": 7294,
      "⣿⣿⣿⣿⣿⡇⠀": 7295,
      "⣿⣿⣿⣿⣿⡄⠀": 7296,
      "⣿⣿⣿⣿⣿⣦⣄": 7297,
      "⣿⣿⣿⣿⣿⣧⠀⠀⠀⠀⠀⠀": 7298,
      "garry": 7299,
      "numbers": 7300,
      "numerous": 7301,
      "spoke": 7302,
      "changes": 7303,
      "testing": 7304,
      "repeating": 7305,
      "dogs": 7306,
      "appealing": 7307,
      "2025": 7308,
      "americans": 7309,
      "^^|": 7310,
      "ification": 7311,
      "💀💀💀💀💀💀💀💀💀💀💀💀💀💀💀💀💀💀": 7312,
      "⠀⠀⠀⠀⠀⠀⡜⠀⠀⠀": 7313,
      "claat": 7314,
      "claimed": 7315,
      "flex": 7316,
      "nathanel": 7317,
      "deserved": 7318,
      "sunday": 7319,
      "engage": 7320,
      "engaged": 7321,
      "engineer": 7322,
      "💀💀💀🍑": 7323,
      "bombastic": 7324,
      "examples": 7325,
      "reactions": 7326,
      "unique": 7327,
      "univers": 7328,
      "01100011": 7329,
      "ladies": 7330,
      "listening": 7331,
      "grandma": 7332,
      "gory": 7333,
      "scott": 7334,
      "🍔🍔🍔🍔🍔": 7335,
      "📸📸📸": 7336,
      "flair": 7337,
      "kamala": 7338,
      "reminded": 7339,
      "absurdism": 7340,
      "politics": 7341,
      "retro": 7342,
      "holds": 7343,
      "panic": 7344,
      "stephen": 7345,
      "accepted": 7346,
      "bloody": 7347,
      "⠉⠉⠛⠻": 7348,
      "defense": 7349,
      "⣿⣿⣿⣿⣿⣿⣿⣿⣿⣿⣿⣿⠇⠀": 7350,
      "⣿⣿⣿⣿⣿⣿⣿⣿⣿⣿⣿⣿⣧⠀⠀⠀": 7351,
      "ridicu": 7352,
      "throat": 7353,
      "insults": 7354,
      "developed": 7355,
      "interested": 7356,
      "oooooooooooooooo": 7357,
      "effects": 7358,
      "sleeping": 7359,
      "caster": 7360,
      "chuuni": 7361,
      "boner": 7362,
      "bonus": 7363,
      "riding": 7364,
      "⣤⣤⠄⠀": 7365,
      "depth": 7366,
      "00000000": 7367,
      "millions": 7368,
      "posse": 7369,
      "mcqueen": 7370,
      "🍋🍋🍋": 7371,
      "🍋🍋🍋🍋🍋": 7372,
      "🥳🥳🥳": 7373,
      "🥳🥳🥳🥳🥳": 7374,
      "🪇🪇🪇🪇": 7375,
      "⭕⭕⭕⭕⭕⭕": 7376,
      "⭕⭕⭕⭕⭕⭕⭕⭕⭕⭕": 7377,
      "influence": 7378,
      "influencer": 7379,
      "obsession": 7380,
      "filler": 7381,
      "christmas": 7382,
      "gymnast": 7383,
      "elder": 7384,
      "latter": 7385,
      "wysi": 7386,
      "reported": 7387,
      "recogn": 7388,
      "🗼🗼🗼🗼": 7389,
      "collap": 7390,
      "improved": 7391,
      "introduce": 7392,
      "knife": 7393,
      "kisser": 7394,
      "wisdom": 7395,
      "widely": 7396,
      "⠛⠋⠉⠈⠉⠉": 7397,
      "⠛⠋⠛⠃⠀⠀⠀⠀⠀": 7398,
      "⠛⠋⠀⠀⠀⣿⣿⣿⣿⣿": 7399,
      "⬛⬛⬛⬛": 7400,
      "🟧🟧🟧🟧": 7401,
      "incident": 7402,
      "reached": 7403,
      "several": 7404,
      "dipshit": 7405,
      "crown": 7406,
      "hanging": 7407,
      "pills": 7408,
      "💦💦💦💦": 7409,
      "require": 7410,
      "seasons": 7411,
      "⣿⣿⡿⠀⠴": 7412,
      "connected": 7413,
      "treatment": 7414,
      "🇰🇿🇰🇿🇰🇿": 7415,
      "haters": 7416,
      "occas": 7417,
      "sarcast": 7418,
      "⠁⠀⠀⠹⣿": 7419,
      "devolving": 7420,
      "devolved": 7421,
      "therapy": 7422,
      "🤯🤯🤯🤯🤯🤯": 7423,
      "dankhaven": 7424,
      "equally": 7425,
      "invasion": 7426,
      "choose": 7427,
      "washed": 7428,
      "activated": 7429,
      "storm": 7430,
      "participation": 7431,
      "participating": 7432,
      "reflects": 7433,
      "damudamudamudamudamudamudamudamu": 7434,
      "eggs": 7435,
      "⣾⣿⠏⠀⠠": 7436,
      "⣾⣿⡟⠁⠀⠀⠀⠀⠀": 7437,
      "⣿⡿⠋⠁⠀⠀": 7438,
      "⣿⡿⢿⡀⠀⠀⠀⠀⠀": 7439,
      "instance": 7440,
      "intentional": 7441,
      "intentionally": 7442,
      "copied": 7443,
      "delivery": 7444,
      "⣿⣿⣧⠀⠈": 7445,
      "canada": 7446,
      "congrats": 7447,
      "exclam": 7448,
      "labels": 7449,
      "⣿⣿⣿⣿⣷⠀⠀⠀⠀⠀⠀⠀⠀⠀⠀⠀": 7450,
      "⣿⣿⣿⣿⣷⣄⠀⠀⠀⠀⠀⠀⠀": 7451,
      "⠀⠀⠀⠀⠀⠀⠀⠀⠀⠀⠶⢴": 7452,
      "moderators": 7453,
      "360": 7454,
      "jjk": 7455,
      "science": 7456,
      "🍕🍕🍕🍑🍑🍑🍑🍑🍑🍑": 7457,
      "🤣🍑🍑🍑🍑🍑": 7458,
      "🤣🍑🍑🍑🍑🍑🍑🍑🍑🍑🍑": 7459,
      "iconic": 7460,
      "competit": 7461,
      "industry": 7462,
      "industrial": 7463,
      "slurs": 7464,
      "⠀⠀⠀⠀⠀⠀⠀⠀⠀⠀⠀⠀⠀⠀⠀⠉⠛⢿⣿⣿⣿⣿": 7465,
      "kindergarten": 7466,
      "parody": 7467,
      "🗿🗿🗿💀💀💀🍑": 7468,
      "⣿⣿⣿⣿⣿⣿⣿⣿⡿⠛⣿⣿": 7469,
      "⣿⣿⣿⣿⣿⣿⣿⣿⡿⠿⠛⠛": 7470,
      "imaginary": 7471,
      "annoyed": 7472,
      "⣀⣀⣀⣀⣀⡀": 7473,
      "⣀⣀⣀⣀⠀⠀⠀⠀⠘⣿⣿⣿⣿⣿⣿⣿⣿⣿⣿⣿⣿⣿⣿": 7474,
      "⠀⠀⠀⠀⠀⠀⢀⠈⣿⣿⡿": 7475,
      "⠀⠀⠀⠀⠀⠀⢀⣠⣴": 7476,
      "📸📸📸📸📸📸📸": 7477,
      "transformers": 7478,
      "👟👟👟👟👟👟": 7479,
      "😬😬😬🍑🍑🍑🍑💀💀": 7480,
      "galvan": 7481,
      "jawline": 7482,
      "smack": 7483,
      "throne": 7484,
      "stitution": 7485,
      "potential": 7486,
      "astroke": 7487,
      "1101111": 7488,
      "maxxed": 7489,
      "01110010": 7490,
      "practice": 7491,
      "vacation": 7492,
      "⣿⣷⠀⠀⠀⠀⠀⢾⣿⣿⣿⣿": 7493,
      "revolution": 7494,
      "western": 7495,
      "assassin": 7496,
      "travelled": 7497,
      "insanity": 7498,
      "remotely": 7499,
      "delusional": 7500,
      "achieve": 7501,
      "pandemon": 7502,
      "patience": 7503,
      "snoop": 7504,
      "⠛⠉⠀⣿⣿⣿⣿": 7505,
      "initial": 7506,
      "infected": 7507,
      "remains": 7508,
      "advanced": 7509,
      "gyaat": 7510,
      "bastard": 7511,
      "propaganda": 7512,
      "frankly": 7513,
      "certified": 7514,
      "⣿⣿⣿⣿⣿⣿⣿⣿⣿⣿⣿⣷⡄⠀⠀⠀": 7515,
      "bridge": 7516,
      "restricted": 7517,
      "⣿⣿⣿⣿⣿⡿⠋⠁": 7518,
      "narrative": 7519,
      "schizophrenia": 7520,
      "garden": 7521,
      "japanese": 7522,
      "obama": 7523,
      "⠁⠀⢻⣿⡇": 7524,
      "⠉⠛⠛⠛⠉⠉": 7525,
      "⠤⠄⠒⠈⠀⠀⠀⠀⠀⠀⠀⠀": 7526,
      "⢀⣴⣿⣿⣿⣿⣿⣿⣿⣿⣿⣿⣿⣿": 7527,
      "⣄⡀⠀⠀⠀⠀⠀⠀⠀⠙⢿": 7528,
      "⣠⣾⣿⣿⣿⣿⣿⣿⣿⣿⣿": 7529,
      "⣤⣴⡶⠶⠖⠀⠀⠀⠀⠀⠀⠀⠀⠀⠀⠀": 7530,
      "⣴⣶⣿⡄⣿": 7531,
      "👈🏿👈🏿": 7532,
      "romeo": 7533,
      "haunted": 7534,
      "liquid": 7535,
      "heimer": 7536,
      "wiggity": 7537,
      "⣿⣿⣟⣾⣿⡟⠁⠀⠀⠀⠀⠀": 7538,
      "⣿⣿⣷⢻⠄⠘": 7539,
      "according": 7540,
      "suicide": 7541,
      "1110010": 7542,
      "griffin": 7543,
      "grimmace": 7544,
      "⠀⠀⠀⠀⠀⠀⠀⠀⠀⠀⠀⠀⠀⠛⠉⠀⣿⣿⣿⣿": 7545,
      "sincerely": 7546,
      "turkish": 7547,
      "milestone": 7548,
      "cyberpunk": 7549,
      "cognitive": 7550,
      "unexpectedamongusr": 7551,
      "unexpectedthanosr": 7552,
      "challenges": 7553,
      "satisfying": 7554,
      "jersey": 7555,
      "witnessed": 7556,
      "extensively": 7557,
      "enthusiasts": 7558,
      "(.)\"!": 7559,
      "dababy": 7560,
      "hedgehog": 7561,
      "ihadastroke": 7562,
      "journey": 7563,
      "villain": 7564,
      "widespread": 7565,
      "⠁⠀⠀⠀⠀⠀⠀⠀⠀⠀⠀⠀⠀⠀⠀⠀⠀⠀⠀": 7566,
      "⠄⠊⠁⠀⠀⠀⠀⠀⠀⠀⠀⠀⠀⠀⠀⠀⠀⠀⠀⠀⠀": 7567,
      "⠄⠀⠀⠀⠀⠀⠀⠙⠻": 7568,
      "⠉⠙⠛⠋⠀⠀⠀⣿⣿⣿⣿⣿": 7569,
      "⠎⢸⣿⡆⠀⠀⠀⠀⠀⠀": 7570,
      "⠗⢘⣿⣟⠛⠿": 7571,
      "⠙⠿⣿⣿⣿⣿⣿⡇⠀": 7572,
      "⠙⣿⣿⡟⢻⣿⣿⣿⣿⣿⣿⣿⣿⣿": 7573,
      "⠛⠀⣀⣠⣤⣤⠄⠀": 7574,
      "⠟⠀⠀⠀⠀⢀⢃⠀⠀": 7575,
      "⡌⢰⣿⡿⢿⡀⠀⠀⠀⠀⠀": 7576,
      "⡴⣸⣿⣇⡄⠀⠀⠀⠀⢀": 7577,
      "⡿⠄⠙⠛⠀⣀⣠⣤⣤⠄⠀": 7578,
      "⢀⣀⣠⡴⣸⣿⣇⡄⠀⠀⠀⠀⢀": 7579,
      "⢀⣾⣿⣿⣿⣿⣿⣷⢢⠀⠀⠀⠀⠀⠀⠀": 7580,
      "⢄⠀⠀⠀⠀⠀⠀⠀⠀⠀⠀⠀⠀⠀⠀⠀⣀⠴⠊⠀⠀⠀⠀⠀": 7581,
      "⢗⣠⣤⣴⡶⠶⠖⠀⠀⠀⠀⠀⠀⠀⠀⠀⠀⠀": 7582,
      "⢰⢠⣦⠀⠀⠀⠀⠀⠀⠀⠀⢀⣼": 7583,
      "⢸⣿⣿⣧⢀⣼": 7584,
      "⢸⠀⠀⠀⠀⠀⠀⠀⠀⠀⠀⠟⠀⠀⠀⠀⢀⢃⠀⠀": 7585,
      "⢹⡇⠀⠀⠀⠀⠀⠀⠀⠀⠀⠀⠀⠀⠀⠀⠀⠀⠀⠀⣰⣿⣿⣿⣿": 7586,
      "⢿⣧⠈⠉⠙⠛⠋⠀⠀⠀⣿⣿⣿⣿⣿": 7587,
      "⣀⣤⣤⣤⣄⡀⠀⠀⠀⠀⠀⠀⠀⠙⢿": 7588,
      "⣴⣿⣿⣿⣿⣿⣿⣿⠗⢘⣿⣟⠛⠿": 7589,
      "⣿⡋⠀⠀⠀⠎⢸⣿⡆⠀⠀⠀⠀⠀⠀": 7590,
      "⣿⣁⡀⠀⠀⢰⢠⣦⠀⠀⠀⠀⠀⠀⠀⠀⢀⣼": 7591,
      "😀😐🌚💀": 7592,
      "🪠🚽🚽🚽🚽🚽😲😲😲": 7593,
      "enlighten": 7594,
      "staff": 7595,
      "⠀⠀⠘⡀⠀⠀⠀⠀⠀⠀⠀⠀⠀⠀⠀⠀⠀⠀⠀⠀⠀⠀⠀⠀⠀⠀⡜⠀⠀⠀": 7596,
      "unicorn": 7597,
      "unhinged": 7598,
      "cocomelon": 7599,
      "geometry": 7600,
      "abbrevi": 7601,
      "deltarune": 7602,
      "devices": 7603,
      "⣿⣿⠋⢀⡌⢰⣿⡿⢿⡀⠀⠀⠀⠀⠀": 7604,
      "⣿⣿⡆⠀⠀⠀⠀⠀⠀⠀⠈⣿⣿": 7605,
      "⠀⠀⠀⠀⠈⠢⢄⠀⠀⠀⠀⠀⠀⠀⠀⠀⠀⠀⠀⠀⠀⠀⣀⠴⠊⠀⠀⠀⠀⠀": 7606,
      "grhubhub": 7607,
      "diarrhea": 7608,
      "⣿⣿⣿⣿⣧⡀⠀⠀⠀⠀⠀⠀⠀⠀⠀⠀⠀⠀⢀": 7609,
      "⣿⣿⣿⣿⠿⠛⠉⠉⠁⠀⢻⣿⡇": 7610,
      "⣿⣿⣿⣿⡄⠈⠃⠀⠀⠀⠀⠀⠀⠀⠀⠀⠀⠀⠀⠀⠀⢀⣠⣴": 7611,
      "⣿⣿⣿⣿⡏⣀⠀⠀⠀⠀⠀⠀⠀⣀⣤⣤⣤⣄⡀⠀⠀⠀⠀⠀⠀⠀⠙⢿": 7612,
      "⣿⣿⣿⣿⣟⠀⡴⠄⠀⠀⠀⠀⠀⠀⠙⠻": 7613,
      "⠀⠀⠀⠑⡀⠀⠀⠀⠀⠀⠀⠀⠀⠀⠀⠀⠀⠀⠀⠀⠀⠀⠀⠀⠀⡔⠁⠀⠀⠀": 7614,
      "masculinity": 7615,
      "⠀⠀⠀⠀⠀⠀⠀⠘⣀⠄⠊⠁⠀⠀⠀⠀⠀⠀⠀⠀⠀⠀⠀⠀⠀⠀⠀⠀⠀⠀": 7616,
      "⠀⠀⠀⠀⠀⠀⠀⢸⠀⠀⠀⢀⣀⣀⣀⣀⣀⡀": 7617,
      "⣿⣿⣿⣧⠈⢹⡇⠀⠀⠀⠀⠀⠀⠀⠀⠀⠀⠀⠀⠀⠀⠀⠀⠀⠀⣰⣿⣿⣿⣿": 7618,
      "⣿⣿⣿⠟⠻⠀⠀⠀⠀⠀⠀⠀⠀⠀⠀⠶⢴": 7619,
      "⣿⣿⣿⡀⢠⣾⣿⠏⠀⠠": 7620,
      "⣿⣿⣿⢏⣴⣿⣷⠀⠀⠀⠀⠀⢾⣿⣿⣿⣿": 7621,
      "⣿⣿⣿⣿⣿⡄⠀⣴⣶⣿⡄⣿": 7622,
      "⣿⣿⣿⣿⣿⣦⣄⣀⣀⣀⣀⠀⠀⠀⠀⠘⣿⣿⣿⣿⣿⣿⣿⣿⣿⣿⣿⣿⣿⣿": 7623,
      "⣿⣿⣿⣿⣿⣧⠀⠀⠀⠀⠀⠀⣿": 7624,
      "⠉⠉⠛⠻⢿⣿⣿⣿⣿⣿⣿⣿": 7625,
      "⣿⣿⣿⣿⣿⣿⣿⣿⣿⣿⣿⣿⠇⠀⠁⠀⠀⠹⣿": 7626,
      "⣿⣿⣿⣿⣿⣿⣿⣿⣿⣿⣿⣿⣧⠀⠀⠀⠙⣿⣿⡟⢻⣿⣿⣿⣿⣿⣿⣿⣿⣿": 7627,
      "🪇🪇🪇🪇🪇😬😬😬": 7628,
      "⠛⠋⠉⠈⠉⠉⠉⠉⠛⠻⢿⣿⣿⣿⣿⣿⣿⣿": 7629,
      "⠛⠋⠛⠃⠀⠀⠀⠀⠀⢿⣧⠈⠉⠙⠛⠋⠀⠀⠀⣿⣿⣿⣿⣿": 7630,
      "⬛⬛⬛⬛🟧🟧🟧🟧": 7631,
      "⣿⣿⡿⠀⠴⢗⣠⣤⣴⡶⠶⠖⠀⠀⠀⠀⠀⠀⠀⠀⠀⠀⠀": 7632,
      "⣿⡿⠋⠁⠀⠀⢀⣀⣠⡴⣸⣿⣇⡄⠀⠀⠀⠀⢀": 7633,
      "⣿⣿⣧⠀⠈⢸⠀⠀⠀⠀⠀⠀⠀⠀⠀⠀⠟⠀⠀⠀⠀⢀⢃⠀⠀": 7634,
      "⣿⣿⣿⣿⣷⠀⠀⠀⠀⠀⠀⠀⠀⠀⠀⠀⢀⣴⣿⣿⣿⣿⣿⣿⣿⣿⣿⣿⣿⣿": 7635,
      "⣿⣿⣿⣿⣷⣄⠀⠀⠀⠀⠀⠀⠀⣿": 7636,
      "🍕🍕🍕🍑🍑🍑🍑🍑🍑🍑🍷🗿": 7637,
      "⣿⣿⣿⣿⣿⣿⣿⣿⡿⠛⣿⣿⠀⠀⠀⠀⠀⠀⠀⠀⢐⣿⣿⣿⣿⣿⣿⣿⣿⣿": 7638,
      "⣿⣿⣿⣿⣿⣿⣿⣿⡿⠿⠛⠛⠛⠋⠉⠈⠉⠉⠉⠉⠛⠻⢿⣿⣿⣿⣿⣿⣿⣿": 7639,
      "⠀⠀⠀⠀⠀⠀⢀⠈⣿⣿⡿⠉⠛⠛⠛⠉⠉": 7640,
      "pandemonium": 7641,
      "⣿⣿⣿⣿⣿⣿⣿⣿⣿⣿⣿⣷⡄⠀⠀⠀⣿⣿⣿⣿⣿⣿⣿⣿⣿⣿⣿⣿⣿⣿": 7642,
      "⣿⣿⣿⣿⣿⡿⠋⠁⠀⠀⠀⠀⠀⠀⠀⠀⠀⠀⠀⠀⠀⠀⠀⠉⠛⢿⣿⣿⣿⣿": 7643,
      "⣿⣿⣟⣾⣿⡟⠁⠀⠀⠀⠀⠀⢀⣾⣿⣿⣿⣿⣿⣷⢢⠀⠀⠀⠀⠀⠀⠀": 7644,
      "⣿⣿⣷⢻⠄⠘⠛⠋⠛⠃⠀⠀⠀⠀⠀⢿⣧⠈⠉⠙⠛⠋⠀⠀⠀⣿⣿⣿⣿⣿": 7645,
      "⠙⠿⣿⣿⣿⣿⣿⡇⠀⢸⣿⣿⣧⢀⣼": 7646,
      "⣴⣿⣿⣿⣿⣿⣿⣿⠗⢘⣿⣟⠛⠿⣼": 7647,
      "⣿⡋⠀⠀⠀⠎⢸⣿⡆⠀⠀⠀⠀⠀⠀⣴⣿⣿⣿⣿⣿⣿⣿⠗⢘⣿⣟⠛⠿⣼": 7648,
      "⣿⣁⡀⠀⠀⢰⢠⣦⠀⠀⠀⠀⠀⠀⠀⠀⢀⣼⣿⣿⣿⣿⣿⡄⠀⣴⣶⣿⡄⣿": 7649,
      "⣿⣿⠋⢀⡌⢰⣿⡿⢿⡀⠀⠀⠀⠀⠀⠙⠿⣿⣿⣿⣿⣿⡇⠀⢸⣿⣿⣧⢀⣼": 7650,
      "⣿⣿⣿⣿⣧⡀⠀⠀⠀⠀⠀⠀⠀⠀⠀⠀⠀⠀⢀⣠⣾⣿⣿⣿⣿⣿⣿⣿⣿⣿": 7651,
      "⣿⣿⣿⣿⠿⠛⠉⠉⠁⠀⢻⣿⡇⠀⠀⠀⠀⠀⠀⢀⠈⣿⣿⡿⠉⠛⠛⠛⠉⠉": 7652,
      "⣿⣿⣿⣿⡄⠈⠃⠀⠀⠀⠀⠀⠀⠀⠀⠀⠀⠀⠀⠀⠀⢀⣠⣴⣾⣿⣿⣿⣿⣿": 7653,
      "⣿⣿⣿⣿⡏⣀⠀⠀⠀⠀⠀⠀⠀⣀⣤⣤⣤⣄⡀⠀⠀⠀⠀⠀⠀⠀⠙⢿⣿⣿": 7654,
      "⣿⣿⣿⣿⣟⠀⡴⠄⠀⠀⠀⠀⠀⠀⠙⠻⣿⣿⣿⣿⣷⣄⠀⠀⠀⠀⠀⠀⠀⣿": 7655,
      "⠀⠀⠀⠀⠀⠀⠀⢸⠀⠀⠀⢀⣀⣀⣀⣀⣀⡀⠤⠄⠒⠈⠀⠀⠀⠀⠀⠀⠀⠀": 7656,
      "⣿⣿⣿⠟⠻⠀⠀⠀⠀⠀⠀⠀⠀⠀⠀⠶⢴⣿⣿⣿⣿⣿⣧⠀⠀⠀⠀⠀⠀⣿": 7657,
      "⣿⣿⣿⡀⢠⣾⣿⠏⠀⠠⠀⠀⠀⠀⠀⠀⠀⠀⠀⠀⠀⠀⠀⠛⠉⠀⣿⣿⣿⣿": 7658,
      "⣿⣿⣿⢏⣴⣿⣷⠀⠀⠀⠀⠀⢾⣿⣿⣿⣿⣿⣿⡆⠀⠀⠀⠀⠀⠀⠀⠈⣿⣿": 7659,
      "⣿⣿⣿⣿⣿⣿⣿⣿⣿⣿⣿⣿⠇⠀⠁⠀⠀⠹⣿⠃⠀⣿⣿⣿⣿⣿⣿⣿⣿⣿": 7660,
      "⣿⣿⡿⠀⠴⢗⣠⣤⣴⡶⠶⠖⠀⠀⠀⠀⠀⠀⠀⠀⠀⠀⠀⣀⡸⠀⣿⣿⣿⣿": 7661,
      "⣿⡿⠋⠁⠀⠀⢀⣀⣠⡴⣸⣿⣇⡄⠀⠀⠀⠀⢀⡿⠄⠙⠛⠀⣀⣠⣤⣤⠄⠀": 7662,
      "⣿⣿⣧⠀⠈⢸⠀⠀⠀⠀⠀⠀⠀⠀⠀⠀⠟⠀⠀⠀⠀⢀⢃⠀⠀⢸⣿⣿⣿⣿": 7663,
      "⣿⣿⣟⣾⣿⡟⠁⠀⠀⠀⠀⠀⢀⣾⣿⣿⣿⣿⣿⣷⢢⠀⠀⠀⠀⠀⠀⠀⢸⣿": 7664,
      "!?!?": 7665,
      "\")": 7666,
      "''": 7667,
      "((": 7668,
      ")*": 7669,
      ".,": 7670,
      "3️⃣": 7671,
      "3rd": 7672,
      "49": 7673,
      "400": 7674,
      "51": 7675,
      "52": 7676,
      "58": 7677,
      "5p": 7678,
      "60": 7679,
      "64": 7680,
      "76": 7681,
      "7️⃣": 7682,
      "84": 7683,
      "88": 7684,
      "8th": 7685,
      "96": 7686,
      "9th": 7687,
      ":/": 7688,
      "\\-": 7689,
      "\\[": 7690,
      "\\^": 7691,
      "``": 7692,
      "ais": 7693,
      "bind": 7694,
      "bread": 7695,
      "bity": 7696,
      "bacter": 7697,
      "bene": 7698,
      "banger": 7699,
      "bnam": 7700,
      "cough": 7701,
      "cise": 7702,
      "cca": 7703,
      "cinc": 7704,
      "dl": 7705,
      "dir": 7706,
      "dim": 7707,
      "drain": 7708,
      "dacity": 7709,
      "eli": 7710,
      "ease": 7711,
      "ebon": 7712,
      "eager": 7713,
      "effic": 7714,
      "fj": 7715,
      "fid": 7716,
      "fab": 7717,
      "fif": 7718,
      "g4": 7719,
      "gm": 7720,
      "gt": 7721,
      "ggh": 7722,
      "groom": 7723,
      "glow": 7724,
      "ggling": 7725,
      "hg": 7726,
      "hug": 7727,
      "hank": 7728,
      "hund": 7729,
      "jp": 7730,
      "jah": 7731,
      "jju": 7732,
      "jaded": 7733,
      "kay": 7734,
      "kun": 7735,
      "kms": 7736,
      "kapp": 7737,
      "kmin": 7738,
      "lid": 7739,
      "lli": 7740,
      "mt": 7741,
      "mand": 7742,
      "mun": 7743,
      "mim": 7744,
      "mong": 7745,
      "munch": 7746,
      "mgs": 7747,
      "nan": 7748,
      "nfl": 7749,
      "oth": 7750,
      "oof": 7751,
      "ose": 7752,
      "och": 7753,
      "oye": 7754,
      "pon": 7755,
      "pit": 7756,
      "pting": 7757,
      "pai": 7758,
      "pens": 7759,
      "ride": 7760,
      "rting": 7761,
      "rational": 7762,
      "swi": 7763,
      "slo": 7764,
      "sac": 7765,
      "spl": 7766,
      "sper": 7767,
      "swa": 7768,
      "sans": 7769,
      "swing": 7770,
      "sbi": 7771,
      "sider": 7772,
      "sfx": 7773,
      "tat": 7774,
      "tis": 7775,
      "tch": 7776,
      "tun": 7777,
      "tam": 7778,
      "tart": 7779,
      "twer": 7780,
      "tidal": 7781,
      "uto": 7782,
      "uno": 7783,
      "uro": 7784,
      "ury": 7785,
      "ught": 7786,
      "uber": 7787,
      "uhh": 7788,
      "uable": 7789,
      "uhhhh": 7790,
      "vu": 7791,
      "vom": 7792,
      "wk": 7793,
      "wl": 7794,
      "wth": 7795,
      "waaaaaaaa": 7796,
      "wur": 7797,
      "wap": 7798,
      "wank": 7799,
      "xenni": 7800,
      "yay": 7801,
      "yta": 7802,
      "yfm": 7803,
      "yatt": 7804,
      "yutes": 7805,
      "̵̃": 7806,
      "ни": 7807,
      "ור": 7808,
      "ඞා": 7809,
      "✊🏿": 7810,
      "🆘🆘": 7811,
      "🇮🇪": 7812,
      "🐺🐺": 7813,
      "👾👾": 7814,
      "💀💯💀💯💀": 7815,
      "💔💔": 7816,
      "💪🔥": 7817,
      "🖕🖕": 7818,
      "🗣🔥": 7819,
      "😁😆": 7820,
      "😙🙂": 7821,
      "😛😛": 7822,
      "😴😴": 7823,
      "😹😹": 7824,
      "🛀🏿": 7825,
      "🤫🤫": 7826,
      "🦀🦀": 7827,
      "🦠🦠": 7828,
      "🦲👩🏿": 7829,
      "🫃🫃": 7830,
      "thon": 7831,
      "thal": 7832,
      "thom": 7833,
      "thigh": 7834,
      "thunder": 7835,
      "iny": 7836,
      "inher": 7837,
      "inju": 7838,
      "ann": 7839,
      "ante": 7840,
      "anera": 7841,
      "anticip": 7842,
      "thee": 7843,
      "theart": 7844,
      "themed": 7845,
      "themes": 7846,
      "onin": 7847,
      "oned": 7848,
      "onion": 7849,
      "oured": 7850,
      "respe": 7851,
      "rework": 7852,
      "relie": 7853,
      "reset": 7854,
      "resol": 7855,
      "reject": 7856,
      "repair": 7857,
      "refund": 7858,
      "ision": 7859,
      "isol": 7860,
      "isting": 7861,
      "ispy": 7862,
      "ishable": 7863,
      "mech": 7864,
      "medit": 7865,
      "iting": 7866,
      "toast": 7867,
      "toks": 7868,
      "toys": 7869,
      "towers": 7870,
      "aldo": 7871,
      "alex": 7872,
      "aline": 7873,
      "enjo": 7874,
      "ensure": 7875,
      "stars": 7876,
      "stages": 7877,
      "orwell": 7878,
      "orange": 7879,
      "lee": 7880,
      "leo": 7881,
      "ley": 7882,
      "leet": 7883,
      "leaking": 7884,
      "lexic": 7885,
      "leaked": 7886,
      "lectual": 7887,
      "andro": 7888,
      "idst": 7889,
      "iddy": 7890,
      "aswell": 7891,
      "asian": 7892,
      "assem": 7893,
      "assumed": 7894,
      "edits": 7895,
      "edges": 7896,
      "novel": 7897,
      "arly": 7898,
      "arad": 7899,
      "artic": 7900,
      "wha": 7901,
      "whim": 7902,
      "whel": 7903,
      "beer": 7904,
      "beam": 7905,
      "behave": 7906,
      "beard": 7907,
      "beee": 7908,
      "beside": 7909,
      "behaving": 7910,
      "sell": 7911,
      "select": 7912,
      "chin": 7913,
      "ching": 7914,
      "chur": 7915,
      "rogen": 7916,
      "rots": 7917,
      "robu": 7918,
      "root": 7919,
      "kets": 7920,
      "maps": 7921,
      "maker": 7922,
      "magic": 7923,
      "mauri": 7924,
      "aaa": 7925,
      "aast": 7926,
      "soi": 7927,
      "som": 7928,
      "solit": 7929,
      "haz": 7930,
      "hail": 7931,
      "hazard": 7932,
      "ric": 7933,
      "rie": 7934,
      "rii": 7935,
      "lia": 7936,
      "ayed": 7937,
      "adad": 7938,
      "adren": 7939,
      "admir": 7940,
      "adjective": 7941,
      "gol": 7942,
      "tire": 7943,
      "tile": 7944,
      "kir": 7945,
      "unit": 7946,
      "unlike": 7947,
      "union": 7948,
      "unalive": 7949,
      "unironic": 7950,
      "unnecessary": 7951,
      "unrestricted": 7952,
      "mylittle": 7953,
      "wiki": 7954,
      "wipes": 7955,
      "utf": 7956,
      "uted": 7957,
      "forces": 7958,
      "forbid": 7959,
      "igi": 7960,
      "igned": 7961,
      "coma": 7962,
      "coil": 7963,
      "coast": 7964,
      "coach": 7965,
      "coord": 7966,
      "cookie": 7967,
      "los": 7968,
      "amidst": 7969,
      "usual": 7970,
      "usively": 7971,
      "skibad": 7972,
      "skibiti": 7973,
      "moan": 7974,
      "mood": 7975,
      "mogger": 7976,
      "ceed": 7977,
      "dose": 7978,
      "dope": 7979,
      "dogg": 7980,
      "docu": 7981,
      "sher": 7982,
      "shar": 7983,
      "shun": 7984,
      "abt": 7985,
      "abom": 7986,
      "erection": 7987,
      "dee": 7988,
      "destru": 7989,
      "detect": 7990,
      "outfit": 7991,
      "outsider": 7992,
      "wet": 7993,
      "weight": 7994,
      "webs": 7995,
      "poo": 7996,
      "polar": 7997,
      "popped": 7998,
      "poison": 7999,
      "poleon": 8000,
      "police": 8001,
      "neo": 8002,
      "raven": 8003,
      "racist": 8004,
      "rappers": 8005,
      "withmylittle": 8006,
      "butter": 8007,
      "icious": 8008,
      "actic": 8009,
      "upset": 8010,
      "upload": 8011,
      "upgrade": 8012,
      "bole": 8013,
      "boast": 8014,
      "bozo": 8015,
      "umm": 8016,
      "sometime": 8017,
      "ghtest": 8018,
      "fukin": 8019,
      "holes": 8020,
      "homine": 8021,
      "hooked": 8022,
      "gentle": 8023,
      "signs": 8024,
      "tap": 8025,
      "tagon": 8026,
      "tains": 8027,
      "tainted": 8028,
      "taught": 8029,
      "thingy": 8030,
      "ause": 8031,
      "author": 8032,
      "audacity": 8033,
      "fein": 8034,
      "sul": 8035,
      "dong": 8036,
      "confu": 8037,
      "**.": 8038,
      "ood": 8039,
      "comb": 8040,
      "sayin": 8041,
      "excell": 8042,
      "vention": 8043,
      "laz": 8044,
      "lave": 8045,
      "sss": 8046,
      "rying": 8047,
      "ulating": 8048,
      "shittiest": 8049,
      "bae": 8050,
      "bazing": 8051,
      "baile": 8052,
      "indul": 8053,
      "ppp": 8054,
      "tions": 8055,
      "deriv": 8056,
      "idest": 8057,
      "artist": 8058,
      "timeline": 8059,
      "omz": 8060,
      "dib": 8061,
      "qua": 8062,
      "quice": 8063,
      "illa": 8064,
      "gotry": 8065,
      "agra": 8066,
      "agony": 8067,
      "slam": 8068,
      "slaughter": 8069,
      "redd": 8070,
      "elon": 8071,
      "eling": 8072,
      "elle": 8073,
      "elabor": 8074,
      "ahhhhhhhhh": 8075,
      "broke": 8076,
      "prote": 8077,
      "provide": 8078,
      "provo": 8079,
      "prophe": 8080,
      "pler": 8081,
      "plun": 8082,
      "plate": 8083,
      "plants": 8084,
      "wherefore": 8085,
      "rubber": 8086,
      "saving": 8087,
      "...)": 8088,
      "...?": 8089,
      "therefore": 8090,
      "permission": 8091,
      "seethe": 8092,
      "seeking": 8093,
      "seeming": 8094,
      "guard": 8095,
      "mane": 8096,
      "mance": 8097,
      "mankind": 8098,
      "typo": 8099,
      "reads": 8100,
      "spin": 8101,
      "spicy": 8102,
      "nyc": 8103,
      "nyan": 8104,
      "pled": 8105,
      "premise": 8106,
      "premedit": 8107,
      "headed": 8108,
      "headshot": 8109,
      "headdress": 8110,
      "spelt": 8111,
      "nap": 8112,
      "naked": 8113,
      "napoleon": 8114,
      "comedic": 8115,
      "comedian": 8116,
      "backs": 8117,
      "goodman": 8118,
      "wouldnt": 8119,
      "vibing": 8120,
      "underrated": 8121,
      "undertale": 8122,
      "bled": 8123,
      "faq": 8124,
      "faw": 8125,
      "faith": 8126,
      "favour": 8127,
      "generous": 8128,
      "scf": 8129,
      "scroll": 8130,
      "scaries": 8131,
      "disab": 8132,
      "distra": 8133,
      "disappear": 8134,
      "disaster": 8135,
      "ainted": 8136,
      "taxx": 8137,
      "phonk": 8138,
      "standing": 8139,
      "standards": 8140,
      "??!": 8141,
      "fox": 8142,
      "shape": 8143,
      "shares": 8144,
      "shabnam": 8145,
      "afri": 8146,
      "affect": 8147,
      "offender": 8148,
      "buff": 8149,
      "bucket": 8150,
      "duckling": 8151,
      "stomp": 8152,
      "understandable": 8153,
      "110000": 8154,
      "international": 8155,
      "picking": 8156,
      "pikmin": 8157,
      "dammit": 8158,
      "players": 8159,
      "playful": 8160,
      "humility": 8161,
      "useful": 8162,
      "charach": 8163,
      "charming": 8164,
      "charges": 8165,
      "ache": 8166,
      "male_07": 8167,
      "contrad": 8168,
      "ditto": 8169,
      "aire": 8170,
      "trum": 8171,
      "finish": 8172,
      "subs": 8173,
      "subtle": 8174,
      "subjective": 8175,
      "study": 8176,
      "studies": 8177,
      "damned": 8178,
      "printer": 8179,
      "prank": 8180,
      "prison": 8181,
      "corny": 8182,
      "pops": 8183,
      "poptart": 8184,
      "boyz": 8185,
      "boykisser": 8186,
      "ffs": 8187,
      "ksi": 8188,
      "plaid": 8189,
      "answers": 8190,
      "cracks": 8191,
      "apple": 8192,
      "design": 8193,
      "designed": 8194,
      "minors": 8195,
      "orted": 8196,
      "vored": 8197,
      "literature": 8198,
      "truck": 8199,
      "basis": 8200,
      "glance": 8201,
      "smth": 8202,
      "dumbest": 8203,
      "ency": 8204,
      "enclave": 8205,
      "20s": 8206,
      "stupidest": 8207,
      "calyp": 8208,
      "emulate": 8209,
      "shoes": 8210,
      "shots": 8211,
      "shocked": 8212,
      "eyeballs": 8213,
      "stops": 8214,
      "blowing": 8215,
      "blocked": 8216,
      "blows": 8217,
      "eval": 8218,
      "evok": 8219,
      "fortress": 8220,
      "weirdly": 8221,
      "amongst": 8222,
      "🤣🤣🤣🤣🤣": 8223,
      "workers": 8224,
      "workshop": 8225,
      "capture": 8226,
      "bigotry": 8227,
      "breed": 8228,
      "deny": 8229,
      "simga": 8230,
      "simpler": 8231,
      "gooncave": 8232,
      "march": 8233,
      "marry": 8234,
      "north": 8235,
      "tribu": 8236,
      "lowkey": 8237,
      "lasting": 8238,
      "cube": 8239,
      "randy": 8240,
      "checks": 8241,
      "classroom": 8242,
      "classmates": 8243,
      "siblings": 8244,
      "sedu": 8245,
      "worldwide": 8246,
      "honesty": 8247,
      "mild": 8248,
      "mixing": 8249,
      "pasted": 8250,
      "pyke": 8251,
      "thankfully": 8252,
      "blr": 8253,
      "blur": 8254,
      "dropping": 8255,
      "mustard": 8256,
      "speakers": 8257,
      "cultures": 8258,
      "refused": 8259,
      "commer": 8260,
      "commonly": 8261,
      "meaningful": 8262,
      "guessing": 8263,
      "bron": 8264,
      "price": 8265,
      "private": 8266,
      "aska": 8267,
      "shirt": 8268,
      "england": 8269,
      "whoppew": 8270,
      "osaur": 8271,
      "torn": 8272,
      "momma": 8273,
      "humane": 8274,
      "trending": 8275,
      "rolls": 8276,
      "150": 8277,
      "performance": 8278,
      "consists": 8279,
      "consuming": 8280,
      "morty": 8281,
      "30s": 8282,
      "passion": 8283,
      "confident": 8284,
      "ballot": 8285,
      "handed": 8286,
      "licit": 8287,
      "supervis": 8288,
      "supervise": 8289,
      "juan": 8290,
      "juicy": 8291,
      "caine": 8292,
      "jaja": 8293,
      "editing": 8294,
      "election": 8295,
      "horny": 8296,
      "chose": 8297,
      "skibidito": 8298,
      "aneury": 8299,
      "animal": 8300,
      "transp": 8301,
      "evolve": 8302,
      "googled": 8303,
      "barben": 8304,
      "drew": 8305,
      "dreds": 8306,
      "\\*\\*": 8307,
      "winning": 8308,
      "stray": 8309,
      "strate": 8310,
      "experiences": 8311,
      "69420": 8312,
      "begging": 8313,
      "touret": 8314,
      "sponsored": 8315,
      "storyline": 8316,
      "colleges": 8317,
      "burning": 8318,
      "iety": 8319,
      "bullets": 8320,
      "brave": 8321,
      "faster": 8322,
      "grows": 8323,
      "profound": 8324,
      "hype": 8325,
      "valuable": 8326,
      "🤯🤯🤯": 8327,
      "remove": 8328,
      "delve": 8329,
      "delta": 8330,
      "testament": 8331,
      "bedroom": 8332,
      "nuclear": 8333,
      "staying": 8334,
      "stayed": 8335,
      "sooners": 8336,
      "motherfucker": 8337,
      "johns": 8338,
      "translator": 8339,
      "southern": 8340,
      "respond": 8341,
      "responding": 8342,
      "deeply": 8343,
      "2022": 8344,
      "faced": 8345,
      "facial": 8346,
      "supposedly": 8347,
      "flipped": 8348,
      "flirting": 8349,
      "enjoyable": 8350,
      "explicit": 8351,
      "mentioning": 8352,
      "straightforward": 8353,
      "approved": 8354,
      "💀💀💀💀💀💀💀💀💀💀💀💀💀💀💀💀": 8355,
      "johnny": 8356,
      "kinds": 8357,
      "trolls": 8358,
      "regional": 8359,
      "desert": 8360,
      "squir": 8361,
      "engaging": 8362,
      "poorly": 8363,
      "ishowmeat": 8364,
      "painful": 8365,
      "streams": 8366,
      "strokes": 8367,
      "___": 8368,
      "tony": 8369,
      "wildly": 8370,
      "epicly": 8371,
      "speakerman": 8372,
      "listened": 8373,
      "energe": 8374,
      "airport": 8375,
      "caveman": 8376,
      "gorilla": 8377,
      "emotions": 8378,
      "borrow": 8379,
      "flavor": 8380,
      "pissed": 8381,
      "rising": 8382,
      "slightest": 8383,
      "🇰🇿🇪🇺": 8384,
      "besides": 8385,
      "polite": 8386,
      "powerful": 8387,
      "court": 8388,
      "fluid": 8389,
      "fluent": 8390,
      "kari": 8391,
      "struggling": 8392,
      "courage": 8393,
      "pattern": 8394,
      "vari": 8395,
      "intellectual": 8396,
      "slayer": 8397,
      "shotgun": 8398,
      "bluey": 8399,
      "links": 8400,
      "closest": 8401,
      "unfortunate": 8402,
      "suckin": 8403,
      "texas": 8404,
      "discuss": 8405,
      "interests": 8406,
      "corners": 8407,
      "eeeeeeee": 8408,
      "benef": 8409,
      "fragment": 8410,
      "smooth": 8411,
      "starving": 8412,
      "educ": 8413,
      "sighs": 8414,
      "clothing": 8415,
      "grave": 8416,
      "jizz": 8417,
      "rupt": 8418,
      "associate": 8419,
      "cheeks": 8420,
      "dreams": 8421,
      "haircut": 8422,
      "uttered": 8423,
      "distance": 8424,
      "elements": 8425,
      "wedding": 8426,
      "repul": 8427,
      "replic": 8428,
      "replied": 8429,
      "leaning": 8430,
      "kikikiki": 8431,
      "comprehend": 8432,
      "markers": 8433,
      "appropriated": 8434,
      "😍😍😍😍": 8435,
      "feeding": 8436,
      "impression": 8437,
      "cipal": 8438,
      "1981": 8439,
      "😡😡😡😡": 8440,
      "influx": 8441,
      "ssssssss": 8442,
      "1111001": 8443,
      "critic": 8444,
      "violently": 8445,
      "fights": 8446,
      "disrespectful": 8447,
      "committed": 8448,
      "naturally": 8449,
      "apocalyp": 8450,
      "flying": 8451,
      "latin": 8452,
      "maryland": 8453,
      "predator": 8454,
      "sweat": 8455,
      "wasting": 8456,
      "lyric": 8457,
      "amounts": 8458,
      "rapid": 8459,
      "worthless": 8460,
      "execution": 8461,
      "curiosity": 8462,
      "zippity": 8463,
      "😩😩😩😩": 8464,
      "🥶🥶🥶": 8465,
      "aliens": 8466,
      "combining": 8467,
      "hyperfix": 8468,
      "summoned": 8469,
      "appearance": 8470,
      "successful": 8471,
      "gaining": 8472,
      "gained": 8473,
      "knights": 8474,
      "kissed": 8475,
      "reliant": 8476,
      "remixed": 8477,
      "productive": 8478,
      "screams": 8479,
      "brian": 8480,
      "jerk": 8481,
      "pillow": 8482,
      "🦅🦅🦅🦅": 8483,
      "skibibi": 8484,
      "bowl": 8485,
      "existential": 8486,
      "creeps": 8487,
      "embracing": 8488,
      "triggered": 8489,
      "darkness": 8490,
      "hatred": 8491,
      "hiding": 8492,
      "🤓🤓🤓🤓": 8493,
      "🤣🤣🤣🤣🤣🤣🤣🤣": 8494,
      "sixth": 8495,
      "significantly": 8496,
      "fsr": 8497,
      "h3h3": 8498,
      "hundreds": 8499,
      "activities": 8500,
      "spiderverse": 8501,
      "creatures": 8502,
      "principal": 8503,
      "tttttttt": 8504,
      "claiming": 8505,
      "getoutofmyheadgetoutofmyheadgetoutofmyheadgetoutofmyheadgetoutofmyheadgetoutofmyheadgetoutofmyheadgetoutofmyheadgetoutofmyheadgetoutofmyheadgetoutofmyheadgetoutofmyheadgetoutofmyheadgetoutofmyheadgetoutofmyheadgetoutofmyhead": 8506,
      "snitch": 8507,
      "install": 8508,
      "adopt": 8509,
      "cosplaying": 8510,
      "copium": 8511,
      "demand": 8512,
      "necessarily": 8513,
      "exclusively": 8514,
      "discovering": 8515,
      "building": 8516,
      "biological": 8517,
      "crashing": 8518,
      "mumble": 8519,
      "lemme": 8520,
      "argument": 8521,
      "legitimately": 8522,
      "potatoes": 8523,
      "executed": 8524,
      "🙏🏻🙏🏻🙏🏻🙏🏻": 8525,
      "roflcopter": 8526,
      "cinema": 8527,
      "dabbing": 8528,
      "fantasy": 8529,
      "nationally": 8530,
      "tweet": 8531,
      "lebron": 8532,
      "zzzzzzzz": 8533,
      "details": 8534,
      "potentially": 8535,
      "terminology": 8536,
      "romantic": 8537,
      "direction": 8538,
      "01110011": 8539,
      "yyyyyyyyyyyyyyyyyyyyyyyyyyyyyyyy": 8540,
      "threaten": 8541,
      "spawned": 8542,
      "europe": 8543,
      "glazing": 8544,
      "russia": 8545,
      "russian": 8546,
      "incest": 8547,
      "recommend": 8548,
      "recommended": 8549,
      "islamic": 8550,
      "method": 8551,
      "terrifying": 8552,
      "excessively": 8553,
      "management": 8554,
      "scenar": 8555,
      "scenes": 8556,
      "disgusting": 8557,
      "bubble": 8558,
      "niece": 8559,
      "subscribers": 8560,
      "desire": 8561,
      "survivors": 8562,
      "brutal": 8563,
      "brutally": 8564,
      "microwave": 8565,
      "01101000": 8566,
      "01101001": 8567,
      "australian": 8568,
      "contributed": 8569,
      "opportunity": 8570,
      "ctives": 8571,
      "category": 8572,
      "reveal": 8573,
      "christi": 8574,
      "soybeans": 8575,
      "peaceful": 8576,
      "convinced": 8577,
      "browsing": 8578,
      "pixels": 8579,
      "transcended": 8580,
      "portrays": 8581,
      "birthday": 8582,
      "citizen": 8583,
      "makeitstopmakeitstop": 8584,
      "exaggerated": 8585,
      "lords": 8586,
      "oxy": 8587,
      "soft": 8588,
      "tablet": 8589,
      "zamn": 8590,
      "infinite": 8591,
      "stains": 8592,
      "aspir": 8593,
      "wheres": 8594,
      "lizzie": 8595,
      "detected": 8596,
      "pomni": 8597,
      "acquainted": 8598,
      "ghost": 8599,
      "teeth": 8600,
      "exception": 8601,
      "indiana": 8602,
      "focused": 8603,
      "buzzwords": 8604,
      "shakespeare": 8605,
      "corruption": 8606,
      "application": 8607,
      "encourage": 8608,
      "looksmaxing": 8609,
      "virtual": 8610,
      "dedication": 8611,
      "riddler": 8612,
      "psychological": 8613,
      "congratulations": 8614,
      "dangerous": 8615,
      "global": 8616,
      "honka": 8617,
      "mbti": 8618,
      "🤚🏼🤚🏼": 8619,
      "instructions": 8620,
      "inspiration": 8621,
      "reputation": 8622,
      "organs": 8623,
      "chicago": 8624,
      "chemical": 8625,
      "lightheart": 8626,
      "liberal": 8627,
      "geography": 8628,
      "illiterate": 8629,
      "sports": 8630,
      "establish": 8631,
      "material": 8632,
      "emphasize": 8633,
      "normally": 8634,
      "ridiculed": 8635,
      "recognition": 8636,
      "collapse": 8637,
      "sarcastic": 8638,
      "exclamation": 8639,
      "aisle": 8640,
      "bacteria": 8641,
      "ebonics": 8642,
      "efficient": 8643,
      "hundred": 8644,
      "kappa": 8645,
      "munting": 8646,
      "tattoo": 8647,
      "thighs": 8648,
      "ispywithmylittle": 8649,
      "enjoying": 8650,
      "lexicon": 8651,
      "android": 8652,
      "whelming": 8653,
      "beeeaast": 8654,
      "robux": 8655,
      "maurice": 8656,
      "adrenaline": 8657,
      "forbidden": 8658,
      "document": 8659,
      "website": 8660,
      "hominem": 8661,
      "excellent": 8662,
      "bazinga": 8663,
      "bailey": 8664,
      "quiceanera": 8665,
      "elaborate": 8666,
      "prophet": 8667,
      "premeditated": 8668,
      "favourite": 8669,
      "charachters": 8670,
      "skibiditoilet": 8671,
      "barbenheimer": 8672,
      "tourette": 8673,
      "apocalypse": 8674,
      "lighthearted": 8675,
      "!'": 8676,
      "!)": 8677,
      "\":": 8678,
      "\"🤓": 8679,
      "',": 8680,
      "*(": 8681,
      "*...": 8682,
      "-;": 8683,
      ".🤓": 8684,
      ".).": 8685,
      ".😙🙂": 8686,
      "0ﾟ": 8687,
      "0️⃣": 8688,
      "1n": 8689,
      "29": 8690,
      "2️⃣": 8691,
      "39": 8692,
      "3r": 8693,
      "34k": 8694,
      "53": 8695,
      "55": 8696,
      "56": 8697,
      "500": 8698,
      "50s": 8699,
      "62": 8700,
      "65": 8701,
      "60s": 8702,
      "618": 8703,
      "74": 8704,
      "78": 8705,
      "700": 8706,
      "81": 8707,
      "82": 8708,
      "83": 8709,
      "85": 8710,
      "89": 8711,
      "8r": 8712,
      "92": 8713,
      "94": 8714,
      "9000": 8715,
      ":*": 8716,
      ";)": 8717,
      ";-;": 8718,
      "==": 8719,
      ">.": 8720,
      ">:": 8721,
      "\\#": 8722,
      "\\~": 8723,
      "aven": 8724,
      "ail": 8725,
      "aight": 8726,
      "ava": 8727,
      "aunt": 8728,
      "bz": 8729,
      "bis": 8730,
      "bli": 8731,
      "bonk": 8732,
      "cand": 8733,
      "cig": 8734,
      "cil": 8735,
      "cash": 8736,
      "cism": 8737,
      "cbt": 8738,
      "d1": 8739,
      "dc": 8740,
      "df": 8741,
      "dac": 8742,
      "dur": 8743,
      "dil": 8744,
      "dous": 8745,
      "dread": 8746,
      "dwell": 8747,
      "dwar": 8748,
      "dates": 8749,
      "dared": 8750,
      "dcast": 8751,
      "dgos": 8752,
      "ey": 8753,
      "ema": 8754,
      "econ": 8755,
      "eigh": 8756,
      "fg": 8757,
      "fk": 8758,
      "fou": 8759,
      "fal": 8760,
      "fru": 8761,
      "fits": 8762,
      "fts": 8763,
      "fright": 8764,
      "fist": 8765,
      "fool": 8766,
      "faction": 8767,
      "folder": 8768,
      "fji": 8769,
      "fades": 8770,
      "gn": 8771,
      "gate": 8772,
      "gist": 8773,
      "giz": 8774,
      "gary": 8775,
      "gaw": 8776,
      "gates": 8777,
      "hou": 8778,
      "haa": 8779,
      "hig": 8780,
      "hust": 8781,
      "hul": 8782,
      "hence": 8783,
      "hland": 8784,
      "hunt": 8785,
      "hmmm": 8786,
      "iphone": 8787,
      "jre": 8788,
      "jif": 8789,
      "jure": 8790,
      "juni": 8791,
      "junk": 8792,
      "kg": 8793,
      "kat": 8794,
      "kok": 8795,
      "kong": 8796,
      "kna": 8797,
      "kane": 8798,
      "len": 8799,
      "lau": 8800,
      "lung": 8801,
      "lays": 8802,
      "lamp": 8803,
      "lacy": 8804,
      "mh": 8805,
      "mul": 8806,
      "mler": 8807,
      "mist": 8808,
      "mask": 8809,
      "mately": 8810,
      "mund": 8811,
      "mute": 8812,
      "matched": 8813,
      "nal": 8814,
      "nle": 8815,
      "nif": 8816,
      "nur": 8817,
      "nish": 8818,
      "nahh": 8819,
      "ngest": 8820,
      "nbc": 8821,
      "nesday": 8822,
      "nacle": 8823,
      "oid": 8824,
      "opo": 8825,
      "ohh": 8826,
      "p1": 8827,
      "p2": 8828,
      "pw": 8829,
      "pac": 8830,
      "pim": 8831,
      "phis": 8832,
      "pine": 8833,
      "pity": 8834,
      "patch": 8835,
      "pap": 8836,
      "pitch": 8837,
      "plier": 8838,
      "paul": 8839,
      "qa": 8840,
      "rp": 8841,
      "rou": 8842,
      "rust": 8843,
      "rary": 8844,
      "rhy": 8845,
      "rants": 8846,
      "sation": 8847,
      "sive": 8848,
      "sity": 8849,
      "sence": 8850,
      "size": 8851,
      "sending": 8852,
      "tp": 8853,
      "tone": 8854,
      "ttu": 8855,
      "tant": 8856,
      "tread": 8857,
      "tling": 8858,
      "tgs": 8859,
      "tactic": 8860,
      "uw": 8861,
      "ued": 8862,
      "uic": 8863,
      "uely": 8864,
      "umad": 8865,
      "vp": 8866,
      "vit": 8867,
      "vfe": 8868,
      "vation": 8869,
      "vous": 8870,
      "vals": 8871,
      "vatory": 8872,
      "vaul": 8873,
      "wt": 8874,
      "wag": 8875,
      "wins": 8876,
      "wadd": 8877,
      "xe": 8878,
      "xer": 8879,
      "yan": 8880,
      "yat": 8881,
      "yute": 8882,
      "де": 8883,
      "ну": 8884,
      "ро": 8885,
      "сто": 8886,
      "אז": 8887,
      "הי": 8888,
      "הש": 8889,
      "כל": 8890,
      "נה": 8891,
      "ኃጢ": 8892,
      "’,": 8893,
      "…*": 8894,
      "…..": 8895,
      "ⓜ️": 8896,
      "◕\\": 8897,
      "⠀⣿⣿": 8898,
      "⢿⣿": 8899,
      "⣷⣶": 8900,
      "️in": 8901,
      "ﾉﾟ": 8902,
      "🇩🇪": 8903,
      "🇰🇬": 8904,
      "🌈🚫": 8905,
      "🍅🍅": 8906,
      "🏃🏃": 8907,
      "🐐🐐": 8908,
      "🐒🐒": 8909,
      "🐝🐈": 8910,
      "👈🙏": 8911,
      "👍👍": 8912,
      "👎🏽": 8913,
      "💀\"": 8914,
      "💀😭": 8915,
      "💀🙏": 8916,
      "🔥💀💯💀💯💀": 8917,
      "😀😃": 8918,
      "😂🫱": 8919,
      "😄😄": 8920,
      "😈\"": 8921,
      "😈🔥": 8922,
      "😈\\*\"": 8923,
      "😎\"": 8924,
      "😏😏": 8925,
      "😠😈\"": 8926,
      "😡😠": 8927,
      "😤\"": 8928,
      "😨😨": 8929,
      "😫😫": 8930,
      "😭🙏": 8931,
      "😮😮": 8932,
      "🙄🙄": 8933,
      "🚫🧍": 8934,
      "🤎🤎": 8935,
      "🤑🤑": 8936,
      "🤔🇰🇬": 8937,
      "🤨🤨": 8938,
      "🤫🧏": 8939,
      "🥸🥸": 8940,
      "🦋🦋": 8941,
      "🧃🧃": 8942,
      "🧘🏽": 8943,
      "🧠💀": 8944,
      "🪨🪨": 8945,
      "🫶🏻": 8946,
      "thin": 8947,
      "thir": 8948,
      "thur": 8949,
      "thru": 8950,
      "thorn": 8951,
      "threw": 8952,
      "thier": 8953,
      "inte": 8954,
      "inent": 8955,
      "inten": 8956,
      "inated": 8957,
      "inary": 8958,
      "infl": 8959,
      "indefinitely": 8960,
      "inspec": 8961,
      "incorrectly": 8962,
      "informed": 8963,
      "incorpor": 8964,
      "anch": 8965,
      "antics": 8966,
      "anita": 8967,
      "antagon": 8968,
      "erd": 8969,
      "ero": 8970,
      "ermm": 8971,
      "atz": 8972,
      "atmo": 8973,
      "theor": 8974,
      "theless": 8975,
      "ouds": 8976,
      "ouls": 8977,
      "oustic": 8978,
      "replay": 8979,
      "regre": 8980,
      "reson": 8981,
      "reacting": 8982,
      "retired": 8983,
      "rehab": 8984,
      "retire": 8985,
      "retribu": 8986,
      "isk": 8987,
      "isto": 8988,
      "isaa": 8989,
      "isation": 8990,
      "issa": 8991,
      "meas": 8992,
      "meter": 8993,
      "meow": 8994,
      "mechan": 8995,
      "itor": 8996,
      "ites": 8997,
      "itop": 8998,
      "itty": 8999,
      "itary": 9000,
      "itude": 9001,
      "toe": 9002,
      "toh": 9003,
      "toro": 9004,
      "toil": 9005,
      "toby": 9006,
      "toiled": 9007,
      "toliet": 9008,
      "alle": 9009,
      "alli": 9010,
      "alled": 9011,
      "alka": 9012,
      "alleg": 9013,
      "altern": 9014,
      "enest": 9015,
      "enial": 9016,
      "sty": 9017,
      "stat": 9018,
      "sted": 9019,
      "strain": 9020,
      "ori": 9021,
      "orr": 9022,
      "oral": 9023,
      "orge": 9024,
      "orious": 9025,
      "orphan": 9026,
      "lely": 9027,
      "leash": 9028,
      "andre": 9029,
      "idc": 9030,
      "idents": 9031,
      "idays": 9032,
      "asin": 9033,
      "asha": 9034,
      "aslo": 9035,
      "asks": 9036,
      "asphe": 9037,
      "asdf": 9038,
      "youd": 9039,
      "youve": 9040,
      "youll": 9041,
      "youngest": 9042,
      "edom": 9043,
      "edger": 9044,
      "nop": 9045,
      "noon": 9046,
      "nogra": 9047,
      "nova": 9048,
      "noscope": 9049,
      "noelle": 9050,
      "arous": 9051,
      "arsen": 9052,
      "artific": 9053,
      "bei": 9054,
      "bew": 9055,
      "beep": 9056,
      "beach": 9057,
      "begg": 9058,
      "belt": 9059,
      "beef": 9060,
      "sei": 9061,
      "seed": 9062,
      "chess": 9063,
      "chican": 9064,
      "chronic": 9065,
      "chitis": 9066,
      "rob": 9067,
      "roach": 9068,
      "robot": 9069,
      "rocks": 9070,
      "roles": 9071,
      "roger": 9072,
      "rocket": 9073,
      "maga": 9074,
      "makin": 9075,
      "aaat": 9076,
      "sooo": 9077,
      "sophis": 9078,
      "solely": 9079,
      "hai": 9080,
      "hay": 9081,
      "havent": 9082,
      "haunt": 9083,
      "hakari": 9084,
      "rif": 9085,
      "rig": 9086,
      "ril": 9087,
      "rim": 9088,
      "rion": 9089,
      "rizing": 9090,
      "riots": 9091,
      "lif": 9092,
      "liar": 9093,
      "esque": 9094,
      "lla": 9095,
      "llll": 9096,
      "hest": 9097,
      "ada": 9098,
      "ady": 9099,
      "ading": 9100,
      "adds": 9101,
      "advance": 9102,
      "gore": 9103,
      "goss": 9104,
      "kie": 9105,
      "kicked": 9106,
      "kicking": 9107,
      "kizzy": 9108,
      "kimane": 9109,
      "kiplier": 9110,
      "unci": 9111,
      "unsure": 9112,
      "unlie": 9113,
      "unden": 9114,
      "unholy": 9115,
      "unbear": 9116,
      "untill": 9117,
      "united": 9118,
      "unrelated": 9119,
      "unali": 9120,
      "unfold": 9121,
      "unleash": 9122,
      "willi": 9123,
      "wierd": 9124,
      "utuj": 9125,
      "forty": 9126,
      "forgetting": 9127,
      "former": 9128,
      "fornite": 9129,
      "forcing": 9130,
      "forgor": 9131,
      "forgis": 9132,
      "cott": 9133,
      "covers": 9134,
      "cooki": 9135,
      "coworker": 9136,
      "coworkers": 9137,
      "cocaine": 9138,
      "covfe": 9139,
      "george": 9140,
      "loy": 9141,
      "loon": 9142,
      "lover": 9143,
      "locked": 9144,
      "lobby": 9145,
      "loose": 9146,
      "amine": 9147,
      "skippy": 9148,
      "hiatus": 9149,
      "uscf": 9150,
      "skibbity": 9151,
      "moss": 9152,
      "mocr": 9153,
      "mocked": 9154,
      "mothers": 9155,
      "motha": 9156,
      "motoro": 9157,
      "versus": 9158,
      "verbal": 9159,
      "cel": 9160,
      "idiotic": 9161,
      "doth": 9162,
      "doge": 9163,
      "dood": 9164,
      "dows": 9165,
      "shr": 9166,
      "shu": 9167,
      "shred": 9168,
      "shlong": 9169,
      "shark": 9170,
      "shining": 9171,
      "zzz": 9172,
      "aba": 9173,
      "abs": 9174,
      "aband": 9175,
      "absor": 9176,
      "abnormal": 9177,
      "abusive": 9178,
      "peed": 9179,
      "pepe": 9180,
      "peers": 9181,
      "pearly": 9182,
      "dey": 9183,
      "deci": 9184,
      "devi": 9185,
      "deem": 9186,
      "debat": 9187,
      "depic": 9188,
      "debt": 9189,
      "deeper": 9190,
      "democr": 9191,
      "outta": 9192,
      "outright": 9193,
      "outrage": 9194,
      "weet": 9195,
      "pox": 9196,
      "potion": 9197,
      "pool": 9198,
      "posing": 9199,
      "posure": 9200,
      "podcast": 9201,
      "pokimane": 9202,
      "neur": 9203,
      "neva": 9204,
      "neuro": 9205,
      "raging": 9206,
      "racism": 9207,
      "butcher": 9208,
      "waswas": 9209,
      "irrit": 9210,
      "irration": 9211,
      "rizzin": 9212,
      "rizzless": 9213,
      "ica": 9214,
      "iced": 9215,
      "justify": 9216,
      "ionally": 9217,
      "lete": 9218,
      "leton": 9219,
      "terror": 9220,
      "acion": 9221,
      "accomp": 9222,
      "acade": 9223,
      "acoustic": 9224,
      "upgrad": 9225,
      "upvotes": 9226,
      "bold": 9227,
      "boot": 9228,
      "boards": 9229,
      "bodac": 9230,
      "umb": 9231,
      "umbus": 9232,
      "yeh": 9233,
      "yell": 9234,
      "yeys": 9235,
      "yours": 9236,
      "fuk": 9237,
      "furi": 9238,
      "fury": 9239,
      "host": 9240,
      "hoes": 9241,
      "hops": 9242,
      "hobby": 9243,
      "sigman": 9244,
      "signing": 9245,
      "tuc": 9246,
      "turing": 9247,
      "tape": 9248,
      "tapped": 9249,
      "tastic": 9250,
      "opps": 9251,
      "opposed": 9252,
      "oppressed": 9253,
      "august": 9254,
      "fest": 9255,
      "females": 9256,
      "sucked": 9257,
      "sucking": 9258,
      "sugar": 9259,
      "donow": 9260,
      "kiddo": 9261,
      "kiddy": 9262,
      "conver": 9263,
      "consin": 9264,
      "contest": 9265,
      "constru": 9266,
      "condem": 9267,
      "consumed": 9268,
      "constitution": 9269,
      "conjure": 9270,
      "*****": 9271,
      "oog": 9272,
      "ooh": 9273,
      "enty": 9274,
      "iman": 9275,
      "imate": 9276,
      "immen": 9277,
      "imperi": 9278,
      "immig": 9279,
      "anyl": 9280,
      "anybody": 9281,
      "comfy": 9282,
      "exchange": 9283,
      "explains": 9284,
      "existing": 9285,
      "exposure": 9286,
      "angle": 9287,
      "!!!\"": 9288,
      "fuckery": 9289,
      "lacks": 9290,
      "lavatory": 9291,
      "oko": 9292,
      "okbuddy": 9293,
      "inky": 9294,
      "inking": 9295,
      "ulous": 9296,
      "ulated": 9297,
      "ulates": 9298,
      "grin": 9299,
      "grant": 9300,
      "wayne": 9301,
      "shite": 9302,
      "shitting": 9303,
      "shitposting": 9304,
      "memetics": 9305,
      "bail": 9306,
      "baker": 9307,
      "indu": 9308,
      "inder": 9309,
      "indie": 9310,
      "ppling": 9311,
      "whom": 9312,
      "whoop": 9313,
      "assault": 9314,
      "hishis": 9315,
      "himmler": 9316,
      "urd": 9317,
      "urity": 9318,
      "urgent": 9319,
      "omer": 9320,
      "omfg": 9321,
      "antle": 9322,
      "010": 9323,
      "dive": 9324,
      "diver": 9325,
      "dibby": 9326,
      "quer": 9327,
      "qual": 9328,
      "quar": 9329,
      "quest": 9330,
      "quot": 9331,
      "quarter": 9332,
      "gotrep": 9333,
      "agggh": 9334,
      "sling": 9335,
      "slide": 9336,
      "slash": 9337,
      "slander": 9338,
      "kings": 9339,
      "ounce": 9340,
      "ahhh": 9341,
      "ahrii": 9342,
      "brody": 9343,
      "makeup": 9344,
      "progre": 9345,
      "prolong": 9346,
      "promotion": 9347,
      "proclaimed": 9348,
      "prosper": 9349,
      "plz": 9350,
      "plenty": 9351,
      "sak": 9352,
      "sausage": 9353,
      "perate": 9354,
      "permit": 9355,
      "percent": 9356,
      "oling": 9357,
      "olar": 9358,
      "causes": 9359,
      "mans": 9360,
      "mango": 9361,
      "jobs": 9362,
      "jointed": 9363,
      "tyrion": 9364,
      "readable": 9365,
      "spers": 9366,
      "spring": 9367,
      "tingu": 9368,
      "plement": 9369,
      "pleasure": 9370,
      "prepar": 9371,
      "pregn": 9372,
      "litter": 9373,
      "litty": 9374,
      "onlyfans": 9375,
      "headache": 9376,
      "epste": 9377,
      "fannum": 9378,
      "civi": 9379,
      "tsk": 9380,
      "bababababab": 9381,
      "tengo": 9382,
      "malicious": 9383,
      "backpack": 9384,
      "realizing": 9385,
      "ours": 9386,
      "ourselves": 9387,
      "vily": 9388,
      "yess": 9389,
      "bleak": 9390,
      "chies": 9391,
      "served": 9392,
      "serot": 9393,
      "scr": 9394,
      "scor": 9395,
      "sctu": 9396,
      "scape": 9397,
      "dish": 9398,
      "dissol": 9399,
      "distre": 9400,
      "dislikes": 9401,
      "disorder": 9402,
      "disliked": 9403,
      "discrimin": 9404,
      "disease": 9405,
      "disjointed": 9406,
      "distingu": 9407,
      "taxes": 9408,
      "cringed": 9409,
      "cringier": 9410,
      "phat": 9411,
      "phed": 9412,
      "banter": 9413,
      "banish": 9414,
      "banana": 9415,
      "ishing": 9416,
      "affi": 9417,
      "affirm": 9418,
      "buh": 9419,
      "buck": 9420,
      "bury": 9421,
      "bugg": 9422,
      "buying": 9423,
      "bugs": 9424,
      "bubon": 9425,
      "buried": 9426,
      "stored": 9427,
      "stolen": 9428,
      "understands": 9429,
      "1100": 9430,
      "110100": 9431,
      "110001": 9432,
      "intervention": 9433,
      "pile": 9434,
      "pickle": 9435,
      "overwhelming": 9436,
      "lolz": 9437,
      "sheep": 9438,
      "goddam": 9439,
      "godawful": 9440,
      "hummin": 9441,
      "wanting": 9442,
      "beings": 9443,
      "charles": 9444,
      "charlest": 9445,
      "charizz": 9446,
      "nihi": 9447,
      "niche": 9448,
      "netfli": 9449,
      "msnbc": 9450,
      "monkey": 9451,
      "monsters": 9452,
      "monitor": 9453,
      "scholar": 9454,
      "firin": 9455,
      "commentary": 9456,
      "brainrotted": 9457,
      "grip": 9458,
      "subset": 9459,
      "substan": 9460,
      "substit": 9461,
      "acted": 9462,
      "badass": 9463,
      "studio": 9464,
      "damnnn": 9465,
      "downvote": 9466,
      "creat": 9467,
      "creative": 9468,
      "clin": 9469,
      "cloud": 9470,
      "clouds": 9471,
      "tles": 9472,
      "prase": 9473,
      "lifetime": 9474,
      "waking": 9475,
      "waist": 9476,
      "afternoon": 9477,
      "sym": 9478,
      "mayo": 9479,
      "maturity": 9480,
      "wot": 9481,
      "tical": 9482,
      "ticated": 9483,
      "tickets": 9484,
      "corre": 9485,
      "popman": 9486,
      "izes": 9487,
      "ffff": 9488,
      "tells": 9489,
      "misuse": 9490,
      "misunderstanding": 9491,
      "mistaken": 9492,
      "misery": 9493,
      "misspelled": 9494,
      "misspelling": 9495,
      "plague": 9496,
      "plastic": 9497,
      "turd": 9498,
      "turnt": 9499,
      "hahahah": 9500,
      "😂😂😂😂😂": 9501,
[...]
